{
  "version": "1.0",
  "truncation": null,
  "padding": null,
  "added_tokens": [
    {
      "id": 0,
      "content": "<|unk|>",
      "single_word": false,
      "lstrip": false,
      "rstrip": false,
      "normalized": false,
      "special": true
    },
    {
      "id": 1,
      "content": "</s>",
      "single_word": false,
      "lstrip": false,
      "rstrip": false,
      "normalized": false,
      "special": true
    },
    {
      "id": 2,
      "content": "<pad>",
      "single_word": false,
      "lstrip": false,
      "rstrip": false,
      "normalized": false,
      "special": true
    }
  ],
  "normalizer": {
    "type": "NFKC"
  },
  "pre_tokenizer": {
    "type": "ByteLevel",
    "add_prefix_space": true,
    "trim_offsets": true,
    "use_regex": true
  },
  "post_processor": null,
  "decoder": {
    "type": "ByteLevel",
    "add_prefix_space": true,
    "trim_offsets": true,
    "use_regex": true
  },
  "model": {
    "type": "BPE",
    "dropout": null,
    "unk_token": "<|unk|>",
    "continuing_subword_prefix": null,
    "end_of_word_suffix": null,
    "fuse_unk": false,
    "byte_fallback": false,
    "ignore_merges": false,
    "vocab": {
      "<|unk|>": 0,
      "</s>": 1,
      "<pad>": 2,
      "!": 3,
      "\"": 4,
      "#": 5,
      "$": 6,
      "%": 7,
      "&": 8,
      "'": 9,
      "(": 10,
      ")": 11,
      "*": 12,
      "+": 13,
      ",": 14,
      "-": 15,
      ".": 16,
      "/": 17,
      "0": 18,
      "1": 19,
      "2": 20,
      "3": 21,
      "4": 22,
      "5": 23,
      "6": 24,
      "7": 25,
      "8": 26,
      "9": 27,
      ":": 28,
      ";": 29,
      "<": 30,
      "=": 31,
      ">": 32,
      "?": 33,
      "@": 34,
      "A": 35,
      "B": 36,
      "C": 37,
      "D": 38,
      "E": 39,
      "F": 40,
      "G": 41,
      "H": 42,
      "I": 43,
      "J": 44,
      "K": 45,
      "L": 46,
      "M": 47,
      "N": 48,
      "O": 49,
      "P": 50,
      "Q": 51,
      "R": 52,
      "S": 53,
      "T": 54,
      "U": 55,
      "V": 56,
      "W": 57,
      "X": 58,
      "Y": 59,
      "Z": 60,
      "[": 61,
      "\\": 62,
      "]": 63,
      "^": 64,
      "_": 65,
      "`": 66,
      "a": 67,
      "b": 68,
      "c": 69,
      "d": 70,
      "e": 71,
      "f": 72,
      "g": 73,
      "h": 74,
      "i": 75,
      "j": 76,
      "k": 77,
      "l": 78,
      "m": 79,
      "n": 80,
      "o": 81,
      "p": 82,
      "q": 83,
      "r": 84,
      "s": 85,
      "t": 86,
      "u": 87,
      "v": 88,
      "w": 89,
      "x": 90,
      "y": 91,
      "z": 92,
      "{": 93,
      "|": 94,
      "}": 95,
      "~": 96,
      "¡": 97,
      "¢": 98,
      "£": 99,
      "¤": 100,
      "¥": 101,
      "¦": 102,
      "§": 103,
      "¨": 104,
      "©": 105,
      "ª": 106,
      "«": 107,
      "¬": 108,
      "®": 109,
      "¯": 110,
      "°": 111,
      "±": 112,
      "²": 113,
      "³": 114,
      "´": 115,
      "µ": 116,
      "¶": 117,
      "·": 118,
      "¸": 119,
      "¹": 120,
      "º": 121,
      "»": 122,
      "¼": 123,
      "½": 124,
      "¾": 125,
      "¿": 126,
      "À": 127,
      "Á": 128,
      "Â": 129,
      "Ã": 130,
      "Ä": 131,
      "Å": 132,
      "Æ": 133,
      "Ç": 134,
      "È": 135,
      "É": 136,
      "Ê": 137,
      "Ë": 138,
      "Ì": 139,
      "Í": 140,
      "Î": 141,
      "Ï": 142,
      "Ð": 143,
      "Ñ": 144,
      "Ò": 145,
      "Ó": 146,
      "Ô": 147,
      "Õ": 148,
      "Ö": 149,
      "×": 150,
      "Ø": 151,
      "Ù": 152,
      "Ú": 153,
      "Û": 154,
      "Ü": 155,
      "Ý": 156,
      "Þ": 157,
      "ß": 158,
      "à": 159,
      "á": 160,
      "â": 161,
      "ã": 162,
      "ä": 163,
      "å": 164,
      "æ": 165,
      "ç": 166,
      "è": 167,
      "é": 168,
      "ê": 169,
      "ë": 170,
      "ì": 171,
      "í": 172,
      "î": 173,
      "ï": 174,
      "ð": 175,
      "ñ": 176,
      "ò": 177,
      "ó": 178,
      "ô": 179,
      "õ": 180,
      "ö": 181,
      "÷": 182,
      "ø": 183,
      "ù": 184,
      "ú": 185,
      "û": 186,
      "ü": 187,
      "ý": 188,
      "þ": 189,
      "ÿ": 190,
      "Ā": 191,
      "ā": 192,
      "Ă": 193,
      "ă": 194,
      "Ą": 195,
      "ą": 196,
      "Ć": 197,
      "ć": 198,
      "Ĉ": 199,
      "ĉ": 200,
      "Ċ": 201,
      "ċ": 202,
      "Č": 203,
      "č": 204,
      "Ď": 205,
      "ď": 206,
      "Đ": 207,
      "đ": 208,
      "Ē": 209,
      "ē": 210,
      "Ĕ": 211,
      "ĕ": 212,
      "Ė": 213,
      "ė": 214,
      "Ę": 215,
      "ę": 216,
      "Ě": 217,
      "ě": 218,
      "Ĝ": 219,
      "ĝ": 220,
      "Ğ": 221,
      "ğ": 222,
      "Ġ": 223,
      "ġ": 224,
      "Ģ": 225,
      "ģ": 226,
      "Ĥ": 227,
      "ĥ": 228,
      "Ħ": 229,
      "ħ": 230,
      "Ĩ": 231,
      "ĩ": 232,
      "Ī": 233,
      "ī": 234,
      "Ĭ": 235,
      "ĭ": 236,
      "Į": 237,
      "į": 238,
      "İ": 239,
      "ı": 240,
      "Ĳ": 241,
      "ĳ": 242,
      "Ĵ": 243,
      "ĵ": 244,
      "Ķ": 245,
      "ķ": 246,
      "ĸ": 247,
      "Ĺ": 248,
      "ĺ": 249,
      "Ļ": 250,
      "ļ": 251,
      "Ľ": 252,
      "ľ": 253,
      "Ŀ": 254,
      "ŀ": 255,
      "Ł": 256,
      "ł": 257,
      "Ń": 258,
      "ĠĠ": 259,
      "ĠĠĠĠ": 260,
      "ĠĠĠĠĠĠĠĠ": 261,
      "an": 262,
      "ĠĠĠĠĠĠĠĠĠĠĠĠĠĠĠĠ": 263,
      "--": 264,
      "er": 265,
      "Ġd": 266,
      "Ġ|": 267,
      "en": 268,
      "ar": 269,
      "ĠĠĠĠĠĠĠĠĠĠĠĠĠĠĠĠĠĠĠĠĠĠĠĠĠĠĠĠĠĠĠĠ": 270,
      "----": 271,
      "at": 272,
      "Ġm": 273,
      "al": 274,
      "in": 275,
      "ang": 276,
      "ah": 277,
      "Ġp": 278,
      "Ġs": 279,
      "as": 280,
      "un": 281,
      "Ġt": 282,
      "ak": 283,
      "am": 284,
      "Ġk": 285,
      "Ġb": 286,
      "Ġdi": 287,
      "ad": 288,
      "em": 289,
      "ĠS": 290,
      "el": 291,
      "ĠP": 292,
      "--------": 293,
      "on": 294,
      "is": 295,
      "es": 296,
      "ĠĠĠĠĠĠĠĠĠĠĠĠĠĠĠĠĠĠĠĠĠĠĠĠĠĠĠĠĠĠĠĠĠĠĠĠĠĠĠĠĠĠĠĠĠĠĠĠĠĠĠĠĠĠĠĠĠĠĠĠĠĠĠĠ": 297,
      "ik": 298,
      "ĠA": 299,
      "eng": 300,
      "il": 301,
      "ĠM": 302,
      "ya": 303,
      "ĠK": 304,
      "uk": 305,
      "Ġ1": 306,
      "eb": 307,
      "Ġdan": 308,
      "or": 309,
      "it": 310,
      "us": 311,
      "Ġ2": 312,
      "yang": 313,
      "ĠB": 314,
      "ĠT": 315,
      "Ġyang": 316,
      "Ġ(": 317,
      "ga": 318,
      "ur": 319,
      "et": 320,
      "ol": 321,
      "ia": 322,
      "ĠD": 323,
      "ut": 324,
      "ĠĠĠ": 325,
      "ari": 326,
      "ada": 327,
      "ul": 328,
      "ek": 329,
      "um": 330,
      "ing": 331,
      "Ġmen": 332,
      "Ġber": 333,
      "ap": 334,
      "ĠI": 335,
      "ir": 336,
      "kan": 337,
      "Ġl": 338,
      "Ġ20": 339,
      "id": 340,
      "Ġter": 341,
      "ĠJ": 342,
      "ĠC": 343,
      "im": 344,
      "ara": 345,
      "ĠR": 346,
      "ĠL": 347,
      "----------------": 348,
      "ĠĠĠĠĠĠĠĠĠĠĠĠ": 349,
      "ep": 350,
      "ĠN": 351,
      "ĠĠĠĠĠĠĠĠĠĠĠĠĠĠĠĠĠĠĠĠĠĠĠĠĠĠĠĠĠĠĠĠĠĠĠĠĠĠĠĠĠĠĠĠĠĠĠĠĠĠĠĠĠĠĠĠĠĠĠĠĠĠĠĠĠĠĠĠĠĠĠĠĠĠĠĠĠĠĠĠĠĠĠĠĠĠĠĠĠĠĠĠĠĠĠĠĠĠĠĠĠĠĠĠĠĠĠĠĠĠĠĠĠĠĠĠĠĠĠĠĠĠĠĠĠĠĠĠ": 352,
      "Ġin": 353,
      "Ġper": 354,
      "emb": 355,
      "om": 356,
      "nya": 357,
      "asi": 358,
      "akan": 359,
      "ta": 360,
      "ĠH": 361,
      "Ġdari": 362,
      "ung": 363,
      "ĠG": 364,
      "Ġseb": 365,
      "up": 366,
      "ama": 367,
      "ab": 368,
      "ag": 369,
      "ed": 370,
      "##": 371,
      "ian": 372,
      "engan": 373,
      "Ġh": 374,
      "alah": 375,
      "tuk": 376,
      "ĠF": 377,
      "ud": 378,
      "âĢ": 379,
      "ro": 380,
      "Ġpada": 381,
      "and": 382,
      "Ġj": 383,
      "Ġ19": 384,
      "alam": 385,
      "Ġdengan": 386,
      "Ġini": 387,
      "eh": 388,
      "Ġmeng": 389,
      "aw": 390,
      "aga": 391,
      "Ġun": 392,
      "Ġad": 393,
      "os": 394,
      "ay": 395,
      "Ġke": 396,
      "Ġuntuk": 397,
      "Ġadalah": 398,
      "ti": 399,
      "Ġr": 400,
      "Ġmem": 401,
      "ĠW": 402,
      "ahun": 403,
      "ĠIn": 404,
      "Ġ-": 405,
      "si": 406,
      "agai": 407,
      "ĠE": 408,
      "Ġdalam": 409,
      "ter": 410,
      "eg": 411,
      "atan": 412,
      "ai": 413,
      "Ġmer": 414,
      "end": 415,
      "ok": 416,
      "Ġn": 417,
      "ata": 418,
      "ĠU": 419,
      "Ġ201": 420,
      "uh": 421,
      "tr": 422,
      "ĠĠĠĠĠ": 423,
      "Ġtahun": 424,
      "ant": 425,
      "ic": 426,
      "Ġ\"": 427,
      "Ġsebagai": 428,
      "Ġg": 429,
      "ih": 430,
      "Ġf": 431,
      "âĢĵ": 432,
      "adi": 433,
      "Ġ3": 434,
      "ĠĠĠĠĠĠ": 435,
      "oleh": 436,
      "00": 437,
      "ain": 438,
      "ub": 439,
      "ikan": 440,
      "ent": 441,
      "ac": 442,
      "ec": 443,
      "aj": 444,
      "ĠO": 445,
      "Ġoleh": 446,
      "ĠĠĠĠĠĠĠ": 447,
      "ot": 448,
      "op": 449,
      "od": 450,
      "ĠY": 451,
      "ĠĠĠĠĠĠĠĠĠĠĠĠĠĠĠĠĠĠĠĠĠĠĠĠĠĠĠĠĠĠĠĠĠĠĠĠĠĠĠĠĠĠĠĠĠĠĠĠĠĠĠĠĠĠĠĠĠĠĠĠĠĠĠĠĠĠĠĠĠĠĠĠĠĠĠĠĠĠĠĠĠĠĠĠĠĠĠĠĠĠĠĠĠĠĠĠĠĠĠĠĠĠĠĠĠĠĠĠĠĠĠĠĠĠĠĠĠĠĠĠĠĠĠĠĠĠĠĠĠĠĠĠĠĠĠĠĠĠĠĠĠĠĠĠĠĠĠĠĠĠĠĠĠĠĠĠĠĠĠĠĠĠĠĠĠĠĠĠĠĠĠĠĠĠĠĠĠĠĠĠĠĠĠĠĠĠĠĠĠĠĠĠĠĠĠĠĠĠĠĠĠĠĠĠĠĠĠĠĠĠĠĠĠĠĠĠĠĠĠĠĠĠĠĠĠĠĠĠĠĠĠĠĠĠĠĠĠĠĠĠĠĠĠĠĠĠĠĠĠĠĠĠĠĠĠĠ": 452,
      "he": 453,
      "isi": 454,
      "asa": 455,
      "ĠĠĠĠĠĠĠĠĠĠĠĠĠĠĠĠĠĠĠĠĠĠĠĠ": 456,
      "ong": 457,
      "Ġc": 458,
      "amp": 459,
      "Ġmenj": 460,
      "elah": 461,
      "ĠPer": 462,
      "ri": 463,
      "Ġpen": 464,
      "angan": 465,
      "--------------------------------": 466,
      "Ġw": 467,
      "ua": 468,
      "ebut": 469,
      "anya": 470,
      "idak": 471,
      "ali": 472,
      "Ġ#": 473,
      "ati": 474,
      "ej": 475,
      "</": 476,
      "ana": 477,
      "s>": 478,
      "ip": 479,
      "atu": 480,
      "wa": 481,
      "Ġ4": 482,
      "Ġ200": 483,
      "ĠV": 484,
      "orang": 485,
      "uga": 486,
      "19": 487,
      "emp": 488,
      "ika": 489,
      "ĠAn": 490,
      "20": 491,
      "Ġbah": 492,
      "itu": 493,
      "Ġmemb": 494,
      "Ġmel": 495,
      "ob": 496,
      "ĠInd": 497,
      "og": 498,
      "ota": 499,
      "angg": 500,
      "ukan": 501,
      "sebut": 502,
      "Ġjuga": 503,
      "aya": 504,
      "aan": 505,
      "apat": 506,
      "ĠĠĠĠĠĠĠĠĠĠĠĠĠĠĠ": 507,
      "ahan": 508,
      "ĊĊ": 509,
      "Ġmenjadi": 510,
      "ib": 511,
      "ra": 512,
      "amb": 513,
      "ĠAl": 514,
      "ch": 515,
      "uan": 516,
      "Ġpeng": 517,
      "ĠĠĠĠĠĠĠĠĠĠĠĠĠ": 518,
      "Ġtidak": 519,
      "Ġ5": 520,
      "ov": 521,
      "ĠĠĠĠĠĠĠĠĠ": 522,
      "ist": 523,
      "ĠĠĠĠĠĠĠĠĠĠ": 524,
      "atau": 525,
      "esi": 526,
      "ilm": 527,
      "ĠĠĠĠĠĠĠĠĠĠĠ": 528,
      "Ġpert": 529,
      "int": 530,
      "upakan": 531,
      "Ġmeny": 532,
      "eka": 533,
      "Ġatau": 534,
      "ĠCh": 535,
      "Ġmerupakan": 536,
      "Ġpem": 537,
      "ĠĠĠĠĠĠĠĠĠĠĠĠĠĠ": 538,
      "any": 539,
      "Ġtersebut": 540,
      "le": 541,
      "anj": 542,
      "agian": 543,
      "ones": 544,
      "ew": 545,
      "eri": 546,
      "Ġkar": 547,
      "uah": 548,
      "Ġ202": 549,
      "per": 550,
      "ĠMar": 551,
      "Ġ6": 552,
      "of": 553,
      "Ġsel": 554,
      "ena": 555,
      "Ġ0": 556,
      "onesia": 557,
      "ilik": 558,
      "ran": 559,
      "angk": 560,
      "ember": 561,
      "ĠSt": 562,
      "onal": 563,
      "ingg": 564,
      "ĠIndonesia": 565,
      "ig": 566,
      "),": 567,
      "ĠAr": 568,
      "ers": 569,
      "Ġdib": 570,
      "esar": 571,
      "Ġitu": 572,
      "Ġsep": 573,
      "Ġkem": 574,
      "Ġdit": 575,
      "ind": 576,
      "ĠAm": 577,
      "lah": 578,
      "###": 579,
      "st": 580,
      ").": 581,
      "Ġpro": 582,
      "iv": 583,
      "oh": 584,
      "Ġak": 585,
      "ĠĠĠĠĠĠĠĠĠĠĠĠĠĠĠĠĠĠĠĠĠĠĠĠĠĠĠĠĠĠĠĠĠĠĠĠĠĠĠĠĠĠĠĠĠĠĠĠ": 586,
      "iri": 587,
      "aran": 588,
      "ard": 589,
      "Ġkel": 590,
      "Ġsebuah": 591,
      "Ġ7": 592,
      "gun": 593,
      "itas": 594,
      "Ġsek": 595,
      "Ġmereka": 596,
      "ug": 597,
      "ala": 598,
      "ev": 599,
      "Ġset": 600,
      "iliki": 601,
      "Ġ199": 602,
      "uj": 603,
      "Ġdik": 604,
      "Ġsatu": 605,
      "Ġser": 606,
      "Ġkep": 607,
      "Ġia": 608,
      "art": 609,
      "Ġlain": 610,
      "Ġas": 611,
      "Ġdapat": 612,
      "Ġmemiliki": 613,
      "Ġbahwa": 614,
      "Ġv": 615,
      "ebih": 616,
      "Ġ18": 617,
      "umb": 618,
      "ĠSel": 619,
      "apa": 620,
      "alan": 621,
      "Ġ8": 622,
      "Ġof": 623,
      "pesi": 624,
      "esa": 625,
      "Ġ9": 626,
      "omp": 627,
      "asil": 628,
      "Ġbagian": 629,
      "ĠĠĠĠĠĠĠĠĠĠĠĠĠĠĠĠĠĠĠĠĠĠĠĠĠĠĠĠĠĠĠĠĠĠĠĠĠĠĠĠĠĠĠĠĠĠĠĠĠĠĠĠĠĠĠĠĠĠĠĠĠĠĠĠĠĠĠĠĠĠĠĠĠĠĠĠĠĠĠĠĠĠĠĠĠĠĠĠĠĠĠĠĠĠĠĠĠĠĠĠĠĠĠĠĠĠĠĠĠĠĠĠĠĠĠĠĠĠĠĠĠĠĠĠĠĠĠĠĠĠĠĠĠĠĠĠĠĠĠĠĠĠĠĠĠĠĠĠĠĠĠĠĠĠĠĠĠĠĠĠĠĠĠĠĠĠĠĠĠĠĠĠĠĠĠĠĠĠĠĠĠĠĠĠĠĠĠĠĠĠĠĠĠĠĠĠĠĠĠĠĠĠĠĠĠĠĠĠĠĠĠĠĠĠĠĠĠĠĠĠĠĠĠĠĠĠĠĠĠĠĠĠĠĠĠĠĠĠĠĠĠĠĠĠĠĠĠĠĠĠĠĠĠĠĠĠĠĠĠĠĠĠĠĠĠĠĠĠĠĠĠĠĠĠĠĠĠĠĠĠĠĠĠĠĠĠĠĠĠĠĠĠĠĠĠĠĠĠĠĠĠĠĠĠĠĠĠĠĠĠĠĠĠĠĠĠĠĠĠĠĠĠĠĠĠĠĠĠĠĠĠĠĠĠĠĠĠĠĠĠĠĠĠĠĠĠĠĠĠĠĠĠĠĠĠĠĠĠĠĠĠĠĠĠĠĠĠĠĠĠĠĠĠĠĠĠĠĠĠĠĠĠĠĠĠĠĠĠĠĠĠĠĠĠĠĠĠĠĠĠĠĠĠĠĠĠĠĠĠĠĠĠĠĠĠĠĠĠĠĠĠĠĠĠĠĠĠĠĠĠĠĠĠĠĠĠĠĠĠĠĠĠĠĠĠĠĠĠĠĠĠĠĠĠĠĠĠĠĠĠĠĠĠĠĠĠĠĠĠĠĠĠĠĠĠĠĠĠĠĠĠĠĠĠĠĠĠĠĠĠĠĠĠĠĠĠĠĠĠĠĠĠĠĠĠĠĠĠĠĠĠĠ": 630,
      "ĠUn": 631,
      "ons": 632,
      "ĠThe": 633,
      "Ġtelah": 634,
      "inya": 635,
      "empat": 636,
      "ĠPr": 637,
      "ula": 638,
      "ingga": 639,
      "man": 640,
      "ingk": 641,
      "Ġket": 642,
      "hir": 643,
      "ont": 644,
      "ĠâĢĵ": 645,
      "ui": 646,
      "aat": 647,
      "---": 648,
      "est": 649,
      "erti": 650,
      "arta": 651,
      "pesies": 652,
      "eber": 653,
      "Ġse": 654,
      "âĢĶ": 655,
      "Ġpend": 656,
      "ungan": 657,
      "Ġlebih": 658,
      "Ġ----------------": 659,
      "atas": 660,
      "re": 661,
      "ĠBar": 662,
      "ita": 663,
      "ow": 664,
      "Ġmend": 665,
      "Ġmas": 666,
      "etap": 667,
      "li": 668,
      "Ġal": 669,
      "Ġberb": 670,
      "gunakan": 671,
      "uar": 672,
      "gr": 673,
      "Ġdis": 674,
      "Ġ[": 675,
      "ĠSh": 676,
      "Ġ--------": 677,
      "aman": 678,
      "imp": 679,
      "sa": 680,
      "Ġker": 681,
      "Ġorang": 682,
      "uat": 683,
      "Ġsem": 684,
      "ord": 685,
      "th": 686,
      "Ġpertama": 687,
      "ecara": 688,
      "egara": 689,
      "ĠAs": 690,
      "Ġkarena": 691,
      "iga": 692,
      "Ġ10": 693,
      "ĠPada": 694,
      "erb": 695,
      "ĠĠĠĠĠĠĠĠĠĠĠĠĠĠĠĠĠ": 696,
      "ĠPro": 697,
      "av": 698,
      "awa": 699,
      "ayah": 700,
      "ĠAg": 701,
      "if": 702,
      "Ġakan": 703,
      "Ġ----": 704,
      "anggal": 705,
      "entuk": 706,
      "Ġdip": 707,
      "Ġant": 708,
      "Ġseorang": 709,
      "udian": 710,
      "ina": 711,
      "ĠZ": 712,
      "af": 713,
      "asan": 714,
      "eberapa": 715,
      "Ġmenc": 716,
      "agi": 717,
      "ĠÂ": 718,
      "uran": 719,
      "Ġterb": 720,
      "unan": 721,
      "ea": 722,
      "ĠPen": 723,
      "ĠTim": 724,
      "Ġsecara": 725,
      "ei": 726,
      "anyak": 727,
      "Ġseperti": 728,
      "Ġ\\": 729,
      "ĠĠĠĠĠĠĠĠĠĠĠĠĠĠĠĠĠĠ": 730,
      "Ġthe": 731,
      "oc": 732,
      "mas": 733,
      "ĠDi": 734,
      "und": 735,
      "Ġan": 736,
      "arah": 737,
      "ja": 738,
      "ha": 739,
      "elum": 740,
      "Ġbar": 741,
      "Ġmus": 742,
      "Ġ198": 743,
      "arkan": 744,
      "Ġbesar": 745,
      "ef": 746,
      "ode": 747,
      "orm": 748,
      "Ġtetap": 749,
      "uc": 750,
      "Ġbers": 751,
      "aik": 752,
      "ust": 753,
      "ill": 754,
      "asional": 755,
      "uari": 756,
      "Ġsej": 757,
      "Ġpemb": 758,
      "ima": 759,
      "agu": 760,
      "ĠAmer": 761,
      "aten": 762,
      "uhan": 763,
      "Ġkec": 764,
      "ĠMen": 765,
      "Ġtanggal": 766,
      "ell": 767,
      "----------------------------------------------------------------": 768,
      "ĠBr": 769,
      "ili": 770,
      "erah": 771,
      "ĠâĢĶ": 772,
      "aja": 773,
      "tor": 774,
      "ĠĠĠĠĠĠĠĠĠĠĠĠĠĠĠĠĠĠĠĠ": 775,
      "Ġberk": 776,
      "Ġdil": 777,
      "eks": 778,
      "Ġ\\|": 779,
      "Ġkemudian": 780,
      "Ġsaat": 781,
      "ĠĠĠĠĠĠĠĠĠĠĠĠĠĠĠĠĠĠĠ": 782,
      "ulan": 783,
      "Ġterl": 784,
      "ĠĠĠĠĠĠĠĠĠĠĠĠĠĠĠĠĠĠĠĠĠĠ": 785,
      "ond": 786,
      "pr": 787,
      "Ġada": 788,
      "era": 789,
      "ĠÂ·": 790,
      "ilayah": 791,
      "enal": 792,
      "Ġa": 793,
      "Ġbi": 794,
      "ĠSer": 795,
      "ulai": 796,
      "ĠĠĠĠĠĠĠĠĠĠĠĠĠĠĠĠĠĠĠĠĠĠĠĠĠ": 797,
      "ĠIa": 798,
      "ĠKab": 799,
      "Ġked": 800,
      "ĊĠ": 801,
      "ĠPem": 802,
      "uara": 803,
      "201": 804,
      "upaten": 805,
      "Ġ]": 806,
      "usia": 807,
      "200": 808,
      "rop": 809,
      "ĠIs": 810,
      "na": 811,
      "Ġfilm": 812,
      "angkan": 813,
      "Ġ12": 814,
      "anda": 815,
      "Ġ15": 816,
      "Ġ11": 817,
      "Ġbeberapa": 818,
      "alia": 819,
      "ĠAmerika": 820,
      "Ġut": 821,
      "Ġsetelah": 822,
      "ey": 823,
      "Ġterd": 824,
      "unia": 825,
      "Ġspesies": 826,
      "ingkat": 827,
      "aks": 828,
      "Ġpr": 829,
      "ĠĠĠĠĠĠĠĠĠĠĠĠĠĠĠĠĠĠĠĠĠ": 830,
      "arang": 831,
      "apan": 832,
      "Pada": 833,
      "erint": 834,
      "idup": 835,
      "tu": 836,
      "akukan": 837,
      "olog": 838,
      "ulis": 839,
      "hi": 840,
      "ĠAd": 841,
      "har": 842,
      "Ġdir": 843,
      "ida": 844,
      "ĠPeng": 845,
      "anc": 846,
      "Ġhingga": 847,
      "Ġ17": 848,
      "ern": 849,
      "ingan": 850,
      "ens": 851,
      "amatan": 852,
      "Ġbert": 853,
      "Ġkes": 854,
      "ert": 855,
      "ori": 856,
      "Ġ197": 857,
      "ikut": 858,
      "Ġ16": 859,
      "Ġbahasa": 860,
      "Ġantara": 861,
      "ãĥ": 862,
      "Ġdua": 863,
      "umum": 864,
      "tern": 865,
      "ĠUt": 866,
      "ĠKabupaten": 867,
      "ĠMus": 868,
      "uni": 869,
      "Ġmengh": 870,
      "Ġpeny": 871,
      "Ġkota": 872,
      "Ġpel": 873,
      "ikat": 874,
      "ani": 875,
      "duk": 876,
      "umlah": 877,
      "awan": 878,
      "all": 879,
      "uli": 880,
      "unc": 881,
      "ĠSep": 882,
      "etak": 883,
      "Ġsalah": 884,
      "ilih": 885,
      "Ġatas": 886,
      "ĠĠĠĠĠĠĠĠĠĠĠĠĠĠĠĠĠĠĠĠĠĠĠĠĠĠĠ": 887,
      "Ã©": 888,
      "usah": 889,
      "Ġ13": 890,
      "tur": 891,
      "Ġ14": 892,
      "arak": 893,
      "Ġwilayah": 894,
      "ort": 895,
      "tar": 896,
      "emen": 897,
      "engah": 898,
      "ola": 899,
      "itar": 900,
      "Ġbanyak": 901,
      "ikasi": 902,
      "10": 903,
      "ĠĠĠĠĠĠĠĠĠĠĠĠĠĠĠĠĠĠĠĠĠĠĠĠĠĠ": 904,
      "angga": 905,
      "Ġtetapi": 906,
      "ayu": 907,
      "Ġst": 908,
      "enc": 909,
      "Ġdim": 910,
      "itik": 911,
      "ou": 912,
      "unj": 913,
      "aka": 914,
      "ilan": 915,
      "uku": 916,
      "inggi": 917,
      "ĠAk": 918,
      "ine": 919,
      "ack": 920,
      "ĠFilm": 921,
      "ini": 922,
      "utan": 923,
      "adap": 924,
      "Ġâ": 925,
      "Ġpas": 926,
      "Ġnegara": 927,
      "Ġ&": 928,
      "Ġtim": 929,
      "unya": 930,
      "gan": 931,
      "Ġput": 932,
      "akarta": 933,
      "uka": 934,
      "ĠĠĠĠĠĠĠĠĠĠĠĠĠĠĠĠĠĠĠĠĠĠĠ": 935,
      "Ġkepada": 936,
      "ĠGr": 937,
      "ĠSelatan": 938,
      "aris": 939,
      "Ġ196": 940,
      "Ġdia": 941,
      "000": 942,
      "aki": 943,
      "18": 944,
      "isa": 945,
      "ĠAng": 946,
      "amun": 947,
      "ark": 948,
      "istr": 949,
      "ivers": 950,
      "ungk": 951,
      "ãģ": 952,
      "Ġand": 953,
      "Ġkali": 954,
      "ĠBel": 955,
      "rad": 956,
      "udi": 957,
      "Ġgen": 958,
      "ĠAb": 959,
      "Ġnama": 960,
      "anjang": 961,
      "Ġpara": 962,
      "awal": 963,
      "ustr": 964,
      "bum": 965,
      "ĠKota": 966,
      "ma": 967,
      "olah": 968,
      "inasi": 969,
      "ial": 970,
      "aerah": 971,
      "ĠSp": 972,
      "ĠJan": 973,
      "Ġ--------------------------------": 974,
      "eran": 975,
      "insi": 976,
      "Ġserta": 977,
      "awah": 978,
      "ĠBarat": 979,
      "ĠDes": 980,
      "Ġsed": 981,
      "Ġtan": 982,
      "Ġsebelum": 983,
      "Ġdigunakan": 984,
      "ĠOk": 985,
      "entara": 986,
      "ump": 987,
      "ahasa": 988,
      "epang": 989,
      "ranc": 990,
      "ubl": 991,
      "ĠLe": 992,
      "angs": 993,
      "Ġkemb": 994,
      "anan": 995,
      "iap": 996,
      "\".": 997,
      "oy": 998,
      "ast": 999,
      "Ġmemper": 1000,
      "ĠIng": 1001,
      "ĠAw": 1002,
      "ĠMan": 1003,
      "inggal": 1004,
      "ilis": 1005,
      "Ġdid": 1006,
      "omb": 1007,
      "alu": 1008,
      "gris": 1009,
      "entang": 1010,
      "inal": 1011,
      "Ġag": 1012,
      "Ġya": 1013,
      "ie": 1014,
      "umah": 1015,
      "ĠTimur": 1016,
      "Ġsang": 1017,
      "Ġ------------": 1018,
      "ensi": 1019,
      "Ġangg": 1020,
      "Ġakhir": 1021,
      "ĠII": 1022,
      "ãĤ": 1023,
      "asih": 1024,
      "ĠSerikat": 1025,
      "ĠNov": 1026,
      "ĠKep": 1027,
      "Ġsamp": 1028,
      "masuk": 1029,
      "iden": 1030,
      "Ġawal": 1031,
      "Ġlainnya": 1032,
      "ult": 1033,
      "ĠJuni": 1034,
      "Ġterh": 1035,
      "Ġbersama": 1036,
      "usi": 1037,
      "ess": 1038,
      "ĠAc": 1039,
      "ebr": 1040,
      "Ġselama": 1041,
      "ĠMal": 1042,
      "uas": 1043,
      "endiri": 1044,
      "Ġberd": 1045,
      "Ġhari": 1046,
      "teri": 1047,
      "Ġyaitu": 1048,
      "Ġhanya": 1049,
      "fi": 1050,
      "ĠJawa": 1051,
      "ĠTh": 1052,
      "eja": 1053,
      "Ġbaru": 1054,
      "az": 1055,
      "ĠInggris": 1056,
      "Ġdiper": 1057,
      "Ġumum": 1058,
      "tif": 1059,
      "ich": 1060,
      "Ġkembali": 1061,
      "ĠBer": 1062,
      "ologi": 1063,
      "vinsi": 1064,
      "aut": 1065,
      "ĠJuli": 1066,
      "Ġterk": 1067,
      "Ġ/": 1068,
      "ober": 1069,
      "uduk": 1070,
      "eker": 1071,
      "gi": 1072,
      "âĢ²": 1073,
      "ura": 1074,
      "ĠJepang": 1075,
      "unga": 1076,
      "uda": 1077,
      "inta": 1078,
      "ĠX": 1079,
      "12": 1080,
      "ĠTidak": 1081,
      "Ġbulan": 1082,
      "ĠAgust": 1083,
      "ĠKet": 1084,
      "Ġmenggunakan": 1085,
      "ĠMas": 1086,
      "itan": 1087,
      "eta": 1088,
      "ĠApr": 1089,
      "urn": 1090,
      "tober": 1091,
      "Ġkedua": 1092,
      "ĠTer": 1093,
      "ĠKr": 1094,
      "iran": 1095,
      "uang": 1096,
      "asanya": 1097,
      "Ġterj": 1098,
      "ĠDesa": 1099,
      "edia": 1100,
      "Ġsama": 1101,
      "engg": 1102,
      "aktu": 1103,
      "ĠĠĠĠĠĠĠĠĠĠĠĠĠĠĠĠĠĠĠĠĠĠĠĠĠĠĠĠĠĠĠĠĠĠĠĠĠĠĠĠĠĠĠĠĠĠĠĠĠĠĠĠĠĠĠĠĠĠĠĠĠĠĠĠĠĠĠĠĠĠĠĠĠĠĠĠĠĠĠĠĠĠĠĠĠĠĠĠĠĠĠĠĠĠĠĠĠĠĠĠĠĠĠĠĠĠĠĠĠĠĠĠĠĠĠĠĠĠĠĠĠĠĠĠĠĠĠĠĠĠĠĠĠĠĠĠĠĠĠĠĠĠĠĠĠĠĠĠĠĠĠĠĠĠĠĠĠĠĠĠĠĠĠĠĠĠĠĠĠĠĠĠĠĠĠĠĠĠĠĠĠĠĠĠĠĠĠĠĠĠĠĠĠĠĠĠĠĠĠĠĠĠĠĠĠĠĠĠĠĠĠĠĠĠĠĠĠĠĠĠĠĠĠĠĠĠĠĠĠĠĠĠĠĠĠĠĠĠĠĠĠĠĠĠĠĠĠĠĠĠĠĠĠĠĠĠĠĠĠĠĠĠĠĠĠĠĠĠĠĠĠĠĠĠĠĠĠĠĠĠĠĠĠĠĠĠĠĠĠĠĠĠĠĠĠĠĠĠĠĠĠĠĠĠĠĠĠĠĠĠĠĠĠĠĠĠĠĠĠĠĠĠĠĠĠĠĠĠĠĠĠĠĠĠĠĠĠĠĠĠĠĠĠĠĠĠĠĠĠĠĠĠĠĠĠĠĠĠĠĠĠĠĠĠĠĠĠĠĠĠĠĠĠĠĠĠĠĠĠĠĠĠĠĠĠĠĠĠĠĠĠĠĠĠĠĠĠĠĠĠĠĠĠĠĠĠĠĠĠĠĠĠĠĠĠĠĠĠĠĠĠĠĠĠĠĠĠĠĠĠĠĠĠĠĠĠĠĠĠĠĠĠĠĠĠĠĠĠĠĠĠĠĠĠĠĠĠĠĠĠĠĠĠĠĠĠĠĠĠĠĠĠĠĠĠĠĠĠĠĠĠĠĠĠĠĠĠĠĠĠĠĠĠĠĠĠĠĠĠĠĠĠĠĠĠĠĠĠĠĠĠĠĠĠĠĠĠĠĠĠĠĠĠĠĠĠĠĠĠĠĠĠĠĠĠĠĠĠĠĠĠĠĠĠĠĠĠĠĠĠĠĠĠĠĠĠĠĠĠĠĠĠĠĠĠĠĠĠĠĠĠĠĠĠĠĠĠĠĠĠĠĠĠĠĠĠĠĠĠĠĠĠĠĠĠĠĠĠĠĠĠĠĠĠĠĠĠĠĠĠĠĠĠĠĠĠĠĠĠĠĠĠĠĠĠĠĠĠĠĠĠĠĠĠĠĠĠĠĠĠĠĠĠĠĠĠĠĠĠĠĠĠĠĠĠĠĠĠĠĠĠĠĠĠĠĠĠĠĠĠĠĠĠĠĠĠĠĠĠĠĠĠĠĠĠĠĠĠĠĠĠĠĠĠĠĠĠĠĠĠĠĠĠĠĠĠĠĠĠĠĠĠĠĠĠĠĠĠĠĠĠĠĠĠĠĠĠĠĠĠĠĠĠĠĠĠĠĠĠĠĠĠĠĠĠĠĠĠĠĠĠĠĠĠĠĠĠĠĠĠĠĠĠĠĠĠĠĠĠĠĠĠĠĠĠĠĠĠĠĠĠĠĠĠĠĠĠĠĠĠĠĠĠĠĠĠĠĠĠĠĠĠĠĠĠĠĠĠĠĠĠĠĠĠĠĠĠĠĠĠĠĠĠĠĠĠĠĠĠĠĠĠĠĠĠĠĠĠĠĠĠĠĠĠĠĠĠĠĠĠĠĠĠĠĠĠĠĠĠĠĠĠĠĠĠĠĠĠĠĠĠĠĠĠĠĠĠĠĠĠĠĠĠĠĠĠĠĠĠĠĠĠĠĠĠĠĠĠĠĠĠĠĠĠĠĠĠĠĠĠĠĠĠĠĠĠĠĠĠĠĠĠĠĠĠĠĠĠĠĠĠĠĠĠĠĠĠĠĠĠĠĠĠĠĠĠĠĠĠĠĠĠĠĠĠĠĠĠĠĠĠĠĠĠĠĠĠĠĠĠĠĠĠĠĠĠĠĠĠĠĠĠĠĠĠĠĠĠĠĠĠĠĠĠĠĠĠĠĠĠĠĠĠĠĠĠĠĠĠĠĠĠĠĠĠĠĠĠĠĠĠĠĠĠ": 1104,
      "Ġlagu": 1105,
      "eo": 1106,
      "ĠUnivers": 1107,
      "Ġtempat": 1108,
      "tember": 1109,
      "ĠKar": 1110,
      "Ġkom": 1111,
      "rans": 1112,
      "ry": 1113,
      "Ġdesa": 1114,
      "alui": 1115,
      "ĠTahun": 1116,
      "Ġ195": 1117,
      "Ġseh": 1118,
      "ton": 1119,
      "ĠAgustus": 1120,
      "impin": 1121,
      "son": 1122,
      "Ġhar": 1123,
      "land": 1124,
      "Ġsekitar": 1125,
      "ĠEl": 1126,
      "Ġpol": 1127,
      "Ġsendiri": 1128,
      "199": 1129,
      "ses": 1130,
      "ĠMei": 1131,
      "unt": 1132,
      "15": 1133,
      "ĠUtara": 1134,
      "ĠSeptember": 1135,
      "usan": 1136,
      "esk": 1137,
      "ĠEn": 1138,
      "Ġanak": 1139,
      "atakan": 1140,
      "ĠApril": 1141,
      "ex": 1142,
      "17": 1143,
      "idikan": 1144,
      "Ġanggota": 1145,
      "ĠSet": 1146,
      "Â°": 1147,
      "..": 1148,
      "ĠMaret": 1149,
      "16": 1150,
      "ual": 1151,
      "Ġbel": 1152,
      "ĠQ": 1153,
      "me": 1154,
      "Ġde": 1155,
      "anta": 1156,
      "ach": 1157,
      "udah": 1158,
      "ĠOktober": 1159,
      "Ġpern": 1160,
      "erman": 1161,
      "Ġpemerint": 1162,
      "Ġman": 1163,
      "egeri": 1164,
      "Ġkayu": 1165,
      "ĠĠĠĠĠĠĠĠĠĠĠĠĠĠĠĠĠĠĠĠĠĠĠĠĠĠĠĠ": 1166,
      "Ġmasa": 1167,
      "ĠSeb": 1168,
      "Ġ25": 1169,
      "Ġdikenal": 1170,
      "ĠOr": 1171,
      "Ġmembuat": 1172,
      "Ġsangat": 1173,
      "ĠKec": 1174,
      "Ġ194": 1175,
      "Ġutama": 1176,
      "ereja": 1177,
      "ĠPol": 1178,
      "Ġtermasuk": 1179,
      "Ġberada": 1180,
      "ĠNo": 1181,
      "olong": 1182,
      "Ġterhadap": 1183,
      "olos": 1184,
      "Ġsen": 1185,
      "ĠKat": 1186,
      "pl": 1187,
      "ĠFebr": 1188,
      "iz": 1189,
      "ue": 1190,
      "ĠDesember": 1191,
      "artai": 1192,
      "ĠĠĠĠĠĠĠĠĠĠĠĠĠĠĠĠĠĠĠĠĠĠĠĠĠĠĠĠĠĠĠĠĠĠĠĠĠĠĠĠĠĠĠĠĠĠĠĠĠĠĠĠĠĠĠĠĠĠĠĠĠĠĠĠĠĠĠĠĠĠĠĠĠĠĠĠĠĠĠĠĠĠĠĠĠĠĠĠĠĠĠĠĠĠĠĠ": 1193,
      "Ġterletak": 1194,
      "Ġ2019": 1195,
      "Ġmelalui": 1196,
      "api": 1197,
      "atang": 1198,
      "13": 1199,
      "ity": 1200,
      "ahkan": 1201,
      "oid": 1202,
      "Ġkelas": 1203,
      "ĠSo": 1204,
      "ĠSur": 1205,
      "Ġkeb": 1206,
      "ht": 1207,
      "Ġfam": 1208,
      "Ġbiasanya": 1209,
      "Ġberh": 1210,
      "usahaan": 1211,
      "aling": 1212,
      "arl": 1213,
      "Ġberp": 1214,
      "ĠNovember": 1215,
      "eter": 1216,
      "erikan": 1217,
      "wan": 1218,
      "ation": 1219,
      "ĠMer": 1220,
      "ĠDia": 1221,
      "ĠJanuari": 1222,
      "uruh": 1223,
      "ij": 1224,
      "Ġdunia": 1225,
      "Ġ------------------------": 1226,
      "Ġ21": 1227,
      "urut": 1228,
      "asal": 1229,
      "imb": 1230,
      "Ġmulai": 1231,
      "Ġdisebut": 1232,
      "ĠKor": 1233,
      "Ġor": 1234,
      "Ġpes": 1235,
      "abat": 1236,
      "Ġhidup": 1237,
      "Ġ2014": 1238,
      "uatu": 1239,
      "ĠAward": 1240,
      "ĠĠĠĠĠĠĠĠĠĠĠĠĠĠĠĠĠĠĠĠĠĠĠĠĠĠĠĠĠ": 1241,
      "ami": 1242,
      "ersi": 1243,
      "Ġtentang": 1244,
      "Ġpers": 1245,
      "annya": 1246,
      "ne": 1247,
      "ĠSM": 1248,
      "iter": 1249,
      "30": 1250,
      "14": 1251,
      "intang": 1252,
      "Ġtert": 1253,
      "Ġ2016": 1254,
      "ulau": 1255,
      "Ġab": 1256,
      "ĠFebruari": 1257,
      "ublik": 1258,
      "Ġfamili": 1259,
      "istem": 1260,
      "Ġses": 1261,
      "Ġkek": 1262,
      "Ġord": 1263,
      "Ġberl": 1264,
      "Ġ2018": 1265,
      "bit": 1266,
      "Ġkomp": 1267,
      "Ġsampai": 1268,
      "ĠCol": 1269,
      "ĠJakarta": 1270,
      "Ġ2015": 1271,
      "yarak": 1272,
      "Ġterg": 1273,
      "rancis": 1274,
      "Ġgenus": 1275,
      "duksi": 1276,
      "isasi": 1277,
      "Ġar": 1278,
      "udul": 1279,
      "yah": 1280,
      "ĠKom": 1281,
      "ĠSek": 1282,
      "au": 1283,
      "ni": 1284,
      "'s": 1285,
      "akhir": 1286,
      "ish": 1287,
      "atif": 1288,
      "esiden": 1289,
      "ĠSpesies": 1290,
      "idae": 1291,
      "ĠTi": 1292,
      "Ġordo": 1293,
      "Ġ30": 1294,
      "Ġketika": 1295,
      "ungkin": 1296,
      "Ġbawah": 1297,
      "ungg": 1298,
      "ebab": 1299,
      "Ġ24": 1300,
      "main": 1301,
      "Ġ2017": 1302,
      "emukan": 1303,
      "aku": 1304,
      "usat": 1305,
      "Ġrumah": 1306,
      "yarakat": 1307,
      "Ġkl": 1308,
      "Ġkeluar": 1309,
      "ĠKe": 1310,
      "ĠAnd": 1311,
      "Ġ22": 1312,
      "Ġ2013": 1313,
      "ath": 1314,
      "Ġ2010": 1315,
      "Ġres": 1316,
      "Ġkon": 1317,
      "tiv": 1318,
      "Ġ2012": 1319,
      "onom": 1320,
      "ibat": 1321,
      "ick": 1322,
      "osisi": 1323,
      "antan": 1324,
      "ass": 1325,
      "lam": 1326,
      "mi": 1327,
      "ĠDr": 1328,
      "asar": 1329,
      "Ġ2020": 1330,
      "11": 1331,
      "ĠKel": 1332,
      "Ġwaktu": 1333,
      "aftar": 1334,
      "24": 1335,
      "ite": 1336,
      "enis": 1337,
      "ĠĠĠĠĠĠĠĠĠĠĠĠĠĠĠĠĠĠĠĠĠĠĠĠĠĠĠĠĠĠ": 1338,
      "ank": 1339,
      "ekn": 1340,
      "ĠPend": 1341,
      "ĠBl": 1342,
      "harga": 1343,
      "amm": 1344,
      "ogra": 1345,
      "oper": 1346,
      "Ġ2011": 1347,
      "engk": 1348,
      "eral": 1349,
      "eda": 1350,
      "ĠNom": 1351,
      "Ġsejak": 1352,
      "fr": 1353,
      "Ġberj": 1354,
      "angunan": 1355,
      "Ġditer": 1356,
      "Ġkh": 1357,
      "alat": 1358,
      "ĠSem": 1359,
      "ĠĠĠĠĠĠĠĠĠĠĠĠĠĠĠĠĠĠĠĠĠĠĠĠĠĠĠĠĠĠĠ": 1360,
      "sk": 1361,
      "Ġmusim": 1362,
      "ion": 1363,
      "ĠBand": 1364,
      "Ġ2021": 1365,
      "Ġbagi": 1366,
      "ihat": 1367,
      "ĠNama": 1368,
      "Ġtel": 1369,
      "our": 1370,
      "ĠKer": 1371,
      "uru": 1372,
      "Ġdaerah": 1373,
      "Ġsehingga": 1374,
      "uta": 1375,
      "Ġmasih": 1376,
      "asarkan": 1377,
      "ĠDalam": 1378,
      "Ġ23": 1379,
      "25": 1380,
      "ho": 1381,
      "pa": 1382,
      "Ġtiga": 1383,
      "ĠPemb": 1384,
      "ongk": 1385,
      "Åį": 1386,
      "ĠPut": 1387,
      "ĠTerb": 1388,
      "Ġga": 1389,
      "ĠNew": 1390,
      "ĠTr": 1391,
      "Ġmelakukan": 1392,
      "Ġhal": 1393,
      "umi": 1394,
      "Ġmendapat": 1395,
      "yak": 1396,
      "Ġberbagai": 1397,
      "asikan": 1398,
      "umbang": 1399,
      "ulu": 1400,
      "ĠKecamatan": 1401,
      "asiun": 1402,
      "ly": 1403,
      "lan": 1404,
      "ade": 1405,
      "ĠPert": 1406,
      "21": 1407,
      "Ġberasal": 1408,
      "ĠIns": 1409,
      "Ġkons": 1410,
      "Ġmemp": 1411,
      "ebabkan": 1412,
      "{\\": 1413,
      "ubah": 1414,
      "23": 1415,
      "Ġfil": 1416,
      "acara": 1417,
      "angka": 1418,
      "isme": 1419,
      "angsung": 1420,
      "ungai": 1421,
      "angkat": 1422,
      "umat": 1423,
      "ge": 1424,
      "oda": 1425,
      "Ã¡": 1426,
      "Ġtergolong": 1427,
      "Ġmana": 1428,
      "hargaan": 1429,
      "Ġair": 1430,
      "ukum": 1431,
      "oran": 1432,
      "AN": 1433,
      "Ġilm": 1434,
      "Ġ2022": 1435,
      "iss": 1436,
      "ĠIt": 1437,
      "unjuk": 1438,
      "ĠPers": 1439,
      "otal": 1440,
      "ira": 1441,
      "ĠRep": 1442,
      "ĠJerman": 1443,
      "Ġ2024": 1444,
      "ampil": 1445,
      "ĠJoh": 1446,
      "Ġtinggi": 1447,
      "Ġmusik": 1448,
      "Ġgel": 1449,
      "Ġpernah": 1450,
      "ĠSej": 1451,
      "Ġkap": 1452,
      "Ġbern": 1453,
      "Ġ2009": 1454,
      "Ġperusahaan": 1455,
      "ĠIntern": 1456,
      "te": 1457,
      "ewan": 1458,
      "ĠPrancis": 1459,
      "Ġmasyarakat": 1460,
      "ĠHar": 1461,
      "ĠPi": 1462,
      "22": 1463,
      "Ġkecil": 1464,
      "Ġterjadi": 1465,
      "teroid": 1466,
      "Ġbisa": 1467,
      "angun": 1468,
      "ĠIr": 1469,
      "Ġ26": 1470,
      "etah": 1471,
      "uatan": 1472,
      "ingin": 1473,
      "isode": 1474,
      "Ġpaling": 1475,
      "Ġterp": 1476,
      "Ġpenduduk": 1477,
      "ĠTengah": 1478,
      "upun": 1479,
      "Ġind": 1480,
      "idang": 1481,
      "Ġ2025": 1482,
      "ĠCl": 1483,
      "Ġ2008": 1484,
      "amanya": 1485,
      "anggap": 1486,
      "anjut": 1487,
      "Ġeks": 1488,
      "Ġkeh": 1489,
      "ĠMa": 1490,
      "ĠNamun": 1491,
      "old": 1492,
      "Ġmengg": 1493,
      "io": 1494,
      "Ġdiri": 1495,
      "erd": 1496,
      "udara": 1497,
      "ompok": 1498,
      "ila": 1499,
      "awat": 1500,
      "\",": 1501,
      "tera": 1502,
      "Ġsemua": 1503,
      "alur": 1504,
      "usus": 1505,
      "ahir": 1506,
      "ĠAnim": 1507,
      "adang": 1508,
      "Ġ27": 1509,
      "ĠRom": 1510,
      "irikan": 1511,
      "ith": 1512,
      "ĠPartai": 1513,
      "ĠSen": 1514,
      "ipun": 1515,
      "iah": 1516,
      "han": 1517,
      "ĠProvinsi": 1518,
      "evisi": 1519,
      "ĠBelanda": 1520,
      "Ġib": 1521,
      "Ġpanjang": 1522,
      "ĠEk": 1523,
      "eskipun": 1524,
      "Ġbaik": 1525,
      "Ġ2023": 1526,
      "Ġ2007": 1527,
      "ĠâĨ": 1528,
      "ĠUniversitas": 1529,
      "Ġsudah": 1530,
      "gram": 1531,
      "Ġdig": 1532,
      "Ġterdiri": 1533,
      "Ġdek": 1534,
      "min": 1535,
      "Ġsistem": 1536,
      "Ġharus": 1537,
      "ĠâĢ": 1538,
      "form": 1539,
      "abak": 1540,
      "ografi": 1541,
      "ropa": 1542,
      "Ġdilakukan": 1543,
      "ez": 1544,
      "apai": 1545,
      "ĠAt": 1546,
      "yat": 1547,
      "Ġ28": 1548,
      "Ġ-----": 1549,
      "Ġseri": 1550,
      "hy": 1551,
      "ĠPa": 1552,
      "uri": 1553,
      "ambil": 1554,
      "ĠPl": 1555,
      "ĠĠĠĠĠĠĠĠĠĠĠĠĠĠĠĠĠĠĠĠĠĠĠĠĠĠĠĠĠĠĠĠĠ": 1556,
      "ĠNegeri": 1557,
      "Ġtak": 1558,
      "ĠAustr": 1559,
      "Ġdin": 1560,
      "ilihan": 1561,
      "ĠOl": 1562,
      "ĠPas": 1563,
      "arat": 1564,
      "Ġalbum": 1565,
      "ajaan": 1566,
      "Ġseluruh": 1567,
      "ĠSe": 1568,
      "angsa": 1569,
      "ĠAir": 1570,
      "ubungan": 1571,
      "ĠKal": 1572,
      "Ġkur": 1573,
      "alif": 1574,
      "to": 1575,
      "ĠEd": 1576,
      "Ġmod": 1577,
      "ĠSy": 1578,
      "ĠSin": 1579,
      "ulang": 1580,
      "Ġterdapat": 1581,
      "Ġasal": 1582,
      "Ġpolitik": 1583,
      "ĠSetelah": 1584,
      "ight": 1585,
      "Ġmeninggal": 1586,
      "ĠEropa": 1587,
      "ĠGe": 1588,
      "udaya": 1589,
      "Ġmenyebabkan": 1590,
      "ekerja": 1591,
      "Ġmat": 1592,
      "ost": 1593,
      "ĠBo": 1594,
      "Ġro": 1595,
      "Ġabad": 1596,
      "50": 1597,
      "ĠSw": 1598,
      "Ġ2006": 1599,
      "ĠMat": 1600,
      "emi": 1601,
      "Ġters": 1602,
      "orn": 1603,
      "Ġkumbang": 1604,
      "Ġking": 1605,
      "dom": 1606,
      "yo": 1607,
      "ice": 1608,
      "opul": 1609,
      "umber": 1610,
      "Ġkr": 1611,
      "Ġkarya": 1612,
      "gab": 1613,
      "ĠArth": 1614,
      "ore": 1615,
      "Ġ--------------------": 1616,
      "ĠHal": 1617,
      "Ġsementara": 1618,
      "198": 1619,
      "Ġgr": 1620,
      "ber": 1621,
      "ĠĠĠĠĠĠĠĠĠĠĠĠĠĠĠĠĠĠĠĠĠĠĠĠĠĠĠĠĠĠĠĠĠĠ": 1622,
      "ora": 1623,
      "inc": 1624,
      "--------------------------------------------------------------------------------------------------------------------------------": 1625,
      "ĠNasional": 1626,
      "oto": 1627,
      "ekan": 1628,
      "enang": 1629,
      "II": 1630,
      "lahir": 1631,
      "atur": 1632,
      "Ġsering": 1633,
      "Ġsuatu": 1634,
      "ĠSal": 1635,
      "aba": 1636,
      "Ġkm": 1637,
      "Ġbernama": 1638,
      "askan": 1639,
      "epat": 1640,
      "ĠMel": 1641,
      "ongkok": 1642,
      "da": 1643,
      "iet": 1644,
      "Ġat": 1645,
      "Ġdij": 1646,
      "ork": 1647,
      "ĠSch": 1648,
      "ilah": 1649,
      "aruh": 1650,
      "Ġwar": 1651,
      "ĠDunia": 1652,
      "war": 1653,
      "ĠIb": 1654,
      "elit": 1655,
      "Ġjumlah": 1656,
      "asis": 1657,
      "Ġek": 1658,
      "isten": 1659,
      "la": 1660,
      "ĠSa": 1661,
      "Ġdih": 1662,
      "ator": 1663,
      "ĠMah": 1664,
      "ny": 1665,
      "onomi": 1666,
      "va": 1667,
      "uasa": 1668,
      "Ġ29": 1669,
      "Ġen": 1670,
      "Ġsebelumnya": 1671,
      "Ġberhasil": 1672,
      "Ġasteroid": 1673,
      "Ġsuara": 1674,
      "Ġmener": 1675,
      "truk": 1676,
      "ate": 1677,
      "Ġz": 1678,
      "ĠGro": 1679,
      "ans": 1680,
      "one": 1681,
      "Ġluar": 1682,
      "ĠMenteri": 1683,
      "Ġ193": 1684,
      "ĠMo": 1685,
      "bahasa": 1686,
      "urkan": 1687,
      "ĠKem": 1688,
      "Ġdirilis": 1689,
      "ĠWil": 1690,
      "men": 1691,
      "Ġap": 1692,
      "ĠCo": 1693,
      "Ġmemberikan": 1694,
      "amat": 1695,
      "ĠKorea": 1696,
      "ĠTiongkok": 1697,
      "ĠSc": 1698,
      "Ġsebagian": 1699,
      "Ġpemain": 1700,
      "Ġmil": 1701,
      "ĠPar": 1702,
      "akil": 1703,
      "lim": 1704,
      "Ġkecamatan": 1705,
      "Ġto": 1706,
      "ĠIslam": 1707,
      "Ġ------": 1708,
      "ĠDe": 1709,
      "ĠAwards": 1710,
      "ĠDem": 1711,
      "Ġ2005": 1712,
      "ff": 1713,
      "Ġsetiap": 1714,
      "antai": 1715,
      "andingan": 1716,
      "Ġfilum": 1717,
      "Ġlok": 1718,
      "aksi": 1719,
      "Ġmasuk": 1720,
      "ash": 1721,
      "osial": 1722,
      "ĠAnimalia": 1723,
      "su": 1724,
      "qu": 1725,
      "dis": 1726,
      "alis": 1727,
      "ĠTV": 1728,
      "ĠPresiden": 1729,
      "ĠLa": 1730,
      "ational": 1731,
      "utrad": 1732,
      "ĠKes": 1733,
      "Ġkingdom": 1734,
      "ĠâĨĳ": 1735,
      "ĠTel": 1736,
      "ĠSam": 1737,
      "ĠMy": 1738,
      "ĠCar": 1739,
      "ecta": 1740,
      "nis": 1741,
      "arier": 1742,
      "utradara": 1743,
      "Ġperk": 1744,
      "Ġlahir": 1745,
      "ock": 1746,
      "ĠMuh": 1747,
      "ĠĠĠĠĠĠĠĠĠĠĠĠĠĠĠĠĠĠĠĠĠĠĠĠĠĠĠĠĠĠĠĠĠĠĠ": 1748,
      "Ġmin": 1749,
      "akit": 1750,
      "ĠRepublik": 1751,
      "ĠJohn": 1752,
      "ampung": 1753,
      "ĠMin": 1754,
      "Ġkal": 1755,
      "alami": 1756,
      "ĠKed": 1757,
      "78": 1758,
      "Ġberikut": 1759,
      "26": 1760,
      "ropoda": 1761,
      "iman": 1762,
      "ĠSk": 1763,
      "abatan": 1764,
      "iwa": 1765,
      "ĠAp": 1766,
      "Ġbentuk": 1767,
      "bo": 1768,
      "ood": 1769,
      "ica": 1770,
      "ela": 1771,
      "ju": 1772,
      "ĠArthropoda": 1773,
      "Ġ-------": 1774,
      "ĠInsecta": 1775,
      "nd": 1776,
      "osi": 1777,
      "ĠFr": 1778,
      "ajar": 1779,
      "Ġlagi": 1780,
      "Ġ2004": 1781,
      "ays": 1782,
      "ĠGereja": 1783,
      "ĠĠĠĠĠĠĠĠĠĠĠĠĠĠĠĠĠĠĠĠĠĠĠĠĠĠĠĠĠĠĠĠĠĠĠĠ": 1784,
      "gabung": 1785,
      "ĠLap": 1786,
      "anita": 1787,
      "ask": 1788,
      "edi": 1789,
      "28": 1790,
      "rat": 1791,
      "ĠKh": 1792,
      "ĠRaja": 1793,
      "lin": 1794,
      "ĠIndia": 1795,
      "ona": 1796,
      "Ġresmi": 1797,
      "Ġpun": 1798,
      "erta": 1799,
      "Ġmakan": 1800,
      "antu": 1801,
      "anto": 1802,
      "adion": 1803,
      "Ġterakhir": 1804,
      "RI": 1805,
      "27": 1806,
      "ban": 1807,
      "ĠEm": 1808,
      "29": 1809,
      "Ġmanusia": 1810,
      "Ġbola": 1811,
      "Ġkeluarga": 1812,
      "bitkan": 1813,
      "ujuan": 1814,
      "ĠHe": 1815,
      "idupan": 1816,
      "ĠTerbaik": 1817,
      "Ġlaut": 1818,
      "Ġsp": 1819,
      "ĠUm": 1820,
      "Ġditerbitkan": 1821,
      "olik": 1822,
      "Ġakhirnya": 1823,
      "Ġ'": 1824,
      "atian": 1825,
      "empuan": 1826,
      "ĠMak": 1827,
      ".[": 1828,
      "Ġsekolah": 1829,
      "Ġmemen": 1830,
      "erita": 1831,
      "enting": 1832,
      "ilai": 1833,
      "entukan": 1834,
      "udd": 1835,
      "atus": 1836,
      "48": 1837,
      "uti": 1838,
      "ĠKon": 1839,
      "ukung": 1840,
      "unjukkan": 1841,
      "uncul": 1842,
      "ait": 1843,
      "sh": 1844,
      "ĠRaya": 1845,
      "ideo": 1846,
      "Ġacara": 1847,
      "play": 1848,
      "ektur": 1849,
      "ĠSul": 1850,
      "Äģ": 1851,
      "Ġ100": 1852,
      "Ġ---": 1853,
      "uki": 1854,
      "ris": 1855,
      "embangan": 1856,
      "yle": 1857,
      "ĠRe": 1858,
      "ĠPel": 1859,
      "Ġkhusus": 1860,
      "ĠSup": 1861,
      "Ġpendidikan": 1862,
      "ĠĠĠĠĠĠĠĠĠĠĠĠĠĠĠĠĠĠĠĠĠĠĠĠĠĠĠĠĠĠĠĠĠĠĠĠĠĠ": 1863,
      "usk": 1864,
      "ide": 1865,
      "ĠEr": 1866,
      "Ġ+": 1867,
      "Ġnamun": 1868,
      "Ġbin": 1869,
      "à¸": 1870,
      "Ġpemerintahan": 1871,
      "ĠPal": 1872,
      "ger": 1873,
      "Ġtanah": 1874,
      "Ġdep": 1875,
      "uskan": 1876,
      "Ġma": 1877,
      "upa": 1878,
      "ĠBal": 1879,
      "Ġberdasarkan": 1880,
      "Ġsebesar": 1881,
      "ĠSeri": 1882,
      "ĠNominasi": 1883,
      "ĠKa": 1884,
      "ji": 1885,
      "ĠTan": 1886,
      "se": 1887,
      "ihan": 1888,
      "Ġ2000": 1889,
      "ral": 1890,
      "Ġjuta": 1891,
      "ammad": 1892,
      "ĠĠĠĠĠĠĠĠĠĠĠĠĠĠĠĠĠĠĠĠĠĠĠĠĠĠĠĠĠĠĠĠĠĠĠĠĠ": 1893,
      "sek": 1894,
      "ĠEp": 1895,
      "ce": 1896,
      "ĠLolos": 1897,
      "ĠNegara": 1898,
      "Ġtrans": 1899,
      "ĠLiga": 1900,
      "ner": 1901,
      "}}": 1902,
      "enar": 1903,
      "ÃŃ": 1904,
      "ĠSelain": 1905,
      "ĠKu": 1906,
      "Ġpemerintah": 1907,
      "Ġperm": 1908,
      "ĠGu": 1909,
      "lm": 1910,
      "Ġbekerja": 1911,
      "ium": 1912,
      "ĠAngk": 1913,
      "Ġnasional": 1914,
      "Ġditemukan": 1915,
      "Ġseg": 1916,
      "tra": 1917,
      "ĠRusia": 1918,
      "ki": 1919,
      ".\"": 1920,
      "Ġhukum": 1921,
      "iode": 1922,
      "rib": 1923,
      "Ġbal": 1924,
      "ĠPh": 1925,
      "anding": 1926,
      "embang": 1927,
      "adan": 1928,
      "eksi": 1929,
      "istrik": 1930,
      "Ġel": 1931,
      "Ġmengen": 1932,
      "Ġtumb": 1933,
      "ganisasi": 1934,
      "unung": 1935,
      "rig": 1936,
      "Ġperd": 1937,
      "40": 1938,
      "Ġmencapai": 1939,
      "ĠTe": 1940,
      "awi": 1941,
      "ema": 1942,
      "eman": 1943,
      "ugas": 1944,
      "ĠRob": 1945,
      "yc": 1946,
      "Ġempat": 1947,
      "Ġperb": 1948,
      "jo": 1949,
      "erang": 1950,
      "ungsi": 1951,
      "Ġpasukan": 1952,
      "ĠMad": 1953,
      "adio": 1954,
      "radisi": 1955,
      "Ġposisi": 1956,
      "Ġluas": 1957,
      "Ġhasil": 1958,
      "isan": 1959,
      "ĠPerang": 1960,
      "Ġmendapatkan": 1961,
      "Ġkab": 1962,
      "Ġdekat": 1963,
      "ĠKan": 1964,
      "Ġintern": 1965,
      "ukup": 1966,
      "aru": 1967,
      "umen": 1968,
      "NI": 1969,
      "ĠMe": 1970,
      "Ġmuncul": 1971,
      "di": 1972,
      "ĠSat": 1973,
      "ng": 1974,
      "Ġjenis": 1975,
      "Ġkapal": 1976,
      "Ġtanpa": 1977,
      "Ġbidang": 1978,
      "ĠAsia": 1979,
      "ĠIS": 1980,
      "ĠSumat": 1981,
      "Ġbl": 1982,
      "Ġkol": 1983,
      "ĠJo": 1984,
      "Ġlangsung": 1985,
      "Ġpopul": 1986,
      "Ġpusat": 1987,
      "sen": 1988,
      "Ġmenyatakan": 1989,
      "ino": 1990,
      "ahari": 1991,
      "ĠPulau": 1992,
      "iko": 1993,
      "ĠPang": 1994,
      "enggara": 1995,
      "etahui": 1996,
      "Ġdic": 1997,
      "ĠItalia": 1998,
      "ĠBat": 1999,
      "ase": 2000,
      "Ġtelevisi": 2001,
      "operasi": 2002,
      "ĠPiala": 2003,
      "Ġkont": 2004,
      "ĠMereka": 2005,
      "uth": 2006,
      "Ġ31": 2007,
      "ment": 2008,
      "eop": 2009,
      "ĠTop": 2010,
      "Ġkelompok": 2011,
      "Ġberbeda": 2012,
      "ĠĠĠĠĠĠĠĠĠĠĠĠĠĠĠĠĠĠĠĠĠĠĠĠĠĠĠĠĠĠĠĠĠĠĠĠĠĠĠĠĠĠĠĠĠĠĠĠĠĠĠĠĠĠĠĠĠĠĠĠĠĠĠĠĠĠĠĠĠĠĠĠĠĠĠĠĠĠĠĠĠĠĠĠĠĠĠĠĠĠĠĠĠĠĠĠĠĠĠĠĠĠĠĠĠĠĠĠĠĠĠĠ": 2013,
      "akar": 2014,
      "ĠRo": 2015,
      "encana": 2016,
      "akyat": 2017,
      "usun": 2018,
      "ame": 2019,
      "Ġfor": 2020,
      "Ġperl": 2021,
      "ĠSejarah": 2022,
      "isah": 2023,
      "Ġsejarah": 2024,
      "ĠCr": 2025,
      "Ġmenjabat": 2026,
      "Ġdr": 2027,
      "ĠKeb": 2028,
      "anyi": 2029,
      "awasan": 2030,
      "aknya": 2031,
      "Ġkata": 2032,
      "ĠBaru": 2033,
      "Ġjiwa": 2034,
      "obil": 2035,
      "Ġilmiah": 2036,
      "Ġproses": 2037,
      "Ġ:": 2038,
      "usaha": 2039,
      "kar": 2040,
      "Ġpenting": 2041,
      "ĠPenghargaan": 2042,
      "ĠWar": 2043,
      "Ġep": 2044,
      "Ġ40": 2045,
      "Ġbermain": 2046,
      "ĠAlbum": 2047,
      "fer": 2048,
      "ĠDir": 2049,
      "Ã¼": 2050,
      "Ġjalan": 2051,
      "Ġmenunjukkan": 2052,
      "stit": 2053,
      "Ġsub": 2054,
      "ikuti": 2055,
      "ley": 2056,
      "Ġketiga": 2057,
      "ĠIm": 2058,
      "pen": 2059,
      "ital": 2060,
      "co": 2061,
      "Ġgelar": 2062,
      "Ġlalu": 2063,
      "urat": 2064,
      "ĠPan": 2065,
      "45": 2066,
      "Ġnom": 2067,
      "style": 2068,
      "ĠDip": 2069,
      "ayat": 2070,
      "uz": 2071,
      "ear": 2072,
      "ka": 2073,
      "ĠGroup": 2074,
      "ayanan": 2075,
      "Ġ2003": 2076,
      "ove": 2077,
      "ver": 2078,
      "ler": 2079,
      "Ġcukup": 2080,
      "ayang": 2081,
      "atar": 2082,
      "ĠAbd": 2083,
      "Ġob": 2084,
      "Ġtekn": 2085,
      "oph": 2086,
      "Ġperempuan": 2087,
      "ld": 2088,
      "angi": 2089,
      "ron": 2090,
      "lo": 2091,
      "Ġpenc": 2092,
      "ĠPet": 2093,
      "asilkan": 2094,
      ".,": 2095,
      "rom": 2096,
      "Ġpenggun": 2097,
      "60": 2098,
      "alnya": 2099,
      "display": 2100,
      "displaystyle": 2101,
      "tion": 2102,
      "Ġbarat": 2103,
      "Ġperj": 2104,
      "atatan": 2105,
      "antikan": 2106,
      "ĠJudul": 2107,
      "aria": 2108,
      "Ġgrup": 2109,
      "Ġdianggap": 2110,
      "Ġsepak": 2111,
      "auh": 2112,
      "ĠTak": 2113,
      "ĠArab": 2114,
      "Ġsekarang": 2115,
      "ĠSan": 2116,
      "ĠPendidikan": 2117,
      "Ġ{\\": 2118,
      "oro": 2119,
      "ĪĴ": 2120,
      "ros": 2121,
      "The": 2122,
      "atat": 2123,
      "eli": 2124,
      "egi": 2125,
      "ĠKap": 2126,
      "ca": 2127,
      ".)": 2128,
      "FA": 2129,
      "PR": 2130,
      "Ġmenerima": 2131,
      "Ġ2002": 2132,
      "ret": 2133,
      "ku": 2134,
      "197": 2135,
      "inan": 2136,
      "ĠĠĠĠĠĠĠĠĠĠĠĠĠĠĠĠĠĠĠĠĠĠĠĠĠĠĠĠĠĠĠĠĠĠĠĠĠĠĠ": 2137,
      "let": 2138,
      "tris": 2139,
      "33": 2140,
      "ulkan": 2141,
      "lat": 2142,
      "asti": 2143,
      "urahan": 2144,
      "Ġmuda": 2145,
      "Ġlolos": 2146,
      "ĠStadion": 2147,
      "Ġte": 2148,
      "Ġik": 2149,
      "no": 2150,
      "upati": 2151,
      "Ġmenyel": 2152,
      "okoh": 2153,
      "ono": 2154,
      "uanya": 2155,
      "ĠSungai": 2156,
      "»¿": 2157,
      "Ġtotal": 2158,
      "Ġkomun": 2159,
      "ï»¿": 2160,
      "ĠStr": 2161,
      "apkan": 2162,
      "res": 2163,
      "Ġmet": 2164,
      "Ġversi": 2165,
      "ĠBen": 2166,
      "Ġmelawan": 2167,
      "rip": 2168,
      "ĠBe": 2169,
      "ĠĠĠĠĠĠĠĠĠĠĠĠĠĠĠĠĠĠĠĠĠĠĠĠĠĠĠĠĠĠĠĠĠĠĠĠĠĠĠĠ": 2170,
      "Ġ2001": 2171,
      "Ġtradisi": 2172,
      "ĠPat": 2173,
      "Ġmungkin": 2174,
      "ĠMed": 2175,
      "esin": 2176,
      "uju": 2177,
      "roduksi": 2178,
      "ĠKetua": 2179,
      "Ġmaupun": 2180,
      "aranya": 2181,
      "Ġmengalami": 2182,
      "Ġ1999": 2183,
      "Ġpertandingan": 2184,
      "ĠKim": 2185,
      "endah": 2186,
      "####": 2187,
      "eum": 2188,
      "Ġdem": 2189,
      "Di": 2190,
      "Ġtinggal": 2191,
      "ĠGo": 2192,
      "za": 2193,
      "Ġ----------------------------": 2194,
      "ĠCom": 2195,
      "Ġsedang": 2196,
      "ĠTrans": 2197,
      "32": 2198,
      "Ġi": 2199,
      "ĠGen": 2200,
      "sp": 2201,
      "utama": 2202,
      "ampilan": 2203,
      "ary": 2204,
      "upan": 2205,
      "ĠDaftar": 2206,
      "akang": 2207,
      "ĠDav": 2208,
      "Ã³": 2209,
      "Ġup": 2210,
      "ĠDan": 2211,
      "35": 2212,
      "Ġklub": 2213,
      "ĠPT": 2214,
      "Ġumumnya": 2215,
      "ĠKatolik": 2216,
      "onton": 2217,
      "oko": 2218,
      "ĠSing": 2219,
      "ĠCon": 2220,
      "ĠTur": 2221,
      "ĠHan": 2222,
      "Ġputra": 2223,
      "Ġku": 2224,
      "ĠBest": 2225,
      "hite": 2226,
      "ory": 2227,
      "Ġdibuat": 2228,
      "landia": 2229,
      "ĠĠĠĠĠĠĠĠĠĠĠĠĠĠĠĠĠĠĠĠĠĠĠĠĠĠĠĠĠĠĠĠĠĠĠĠĠĠĠĠĠ": 2230,
      "Ġ.": 2231,
      "andar": 2232,
      "ĠUd": 2233,
      "Ġpet": 2234,
      "Ġperang": 2235,
      "ĠJam": 2236,
      "ĠMuhammad": 2237,
      "ĠAgung": 2238,
      "una": 2239,
      "adakan": 2240,
      "Ġsekali": 2241,
      "05": 2242,
      "Ġlap": 2243,
      "aca": 2244,
      "ĠÃ": 2245,
      "ĠPo": 2246,
      "Ġterkenal": 2247,
      "ĠPes": 2248,
      "itab": 2249,
      "uw": 2250,
      "Ġist": 2251,
      "Ġsosial": 2252,
      "Ġpenj": 2253,
      "ampilkan": 2254,
      "ĠMon": 2255,
      "ke": 2256,
      "Ġjika": 2257,
      "ĠĠĠĠĠĠĠĠĠĠĠĠĠĠĠĠĠĠĠĠĠĠĠĠĠĠĠĠĠĠĠĠĠĠĠĠĠĠĠĠĠĠĠĠĠĠĠĠĠĠĠĠĠĠĠĠĠĠĠĠĠĠĠĠĠĠĠĠĠĠĠĠĠĠĠĠĠĠĠĠĠĠĠĠĠĠĠĠĠĠĠĠĠĠĠĠĠĠĠĠĠĠĠĠĠĠĠĠĠĠĠĠĠĠĠĠĠĠĠĠĠĠĠĠĠĠĠĠĠĠĠĠĠĠĠĠĠĠĠĠĠĠĠĠĠĠĠĠĠĠĠĠĠĠĠĠĠĠĠĠĠĠĠĠĠĠĠĠĠĠĠĠĠĠĠĠĠĠĠĠĠĠĠĠĠĠĠĠĠĠĠĠĠĠĠĠĠĠĠĠĠĠĠĠĠĠĠĠĠĠĠĠĠĠĠĠĠĠĠĠĠĠĠĠĠĠĠĠĠĠĠĠĠĠĠĠĠĠĠĠĠĠĠĠĠĠĠĠĠĠĠĠĠĠĠĠĠĠĠĠĠĠĠĠĠĠĠĠĠĠĠĠĠĠĠĠĠĠĠĠĠĠĠĠĠĠĠĠĠĠĠĠĠĠĠĠĠĠĠĠĠĠĠĠĠĠĠĠĠĠĠĠĠĠĠĠĠĠĠĠĠĠĠĠĠĠĠĠĠĠĠĠĠĠĠĠĠĠĠĠĠĠĠĠĠĠĠĠĠĠĠĠĠĠĠĠĠĠĠĠĠĠĠĠĠĠĠĠĠĠĠĠĠĠĠĠĠĠĠĠĠĠĠĠĠĠĠĠĠĠĠĠĠĠĠĠĠĠĠĠĠĠĠĠĠĠĠĠĠĠĠĠĠĠĠĠĠĠĠĠĠĠĠĠĠĠĠĠĠĠĠĠĠĠĠĠĠĠĠĠĠĠĠĠĠĠĠĠĠĠĠĠĠĠĠĠĠĠĠĠĠĠĠĠĠĠĠĠĠĠĠĠĠĠĠĠĠĠĠĠĠĠĠĠĠĠĠĠĠĠĠĠĠĠĠĠĠĠĠĠĠĠĠĠĠĠĠĠĠĠĠĠĠĠĠĠĠĠĠĠĠĠĠĠĠĠĠĠĠĠĠĠĠĠĠĠĠĠĠĠĠĠĠĠĠĠĠĠĠĠĠĠĠĠĠĠĠĠĠĠĠĠĠĠĠĠĠĠĠĠĠĠĠĠĠĠĠĠĠĠĠĠĠĠĠĠĠĠĠĠĠĠĠĠĠĠĠĠĠĠĠĠĠĠĠĠĠĠĠĠĠĠĠĠĠĠĠĠĠĠĠĠĠĠĠĠĠĠĠĠĠĠĠĠĠĠĠĠĠĠĠĠĠĠĠĠĠĠĠĠĠĠĠĠĠĠĠĠĠĠĠĠĠĠĠĠĠĠĠĠĠĠĠĠĠĠĠĠĠĠĠĠĠĠĠĠĠĠĠĠĠĠĠĠĠĠĠĠĠĠĠĠĠĠĠĠĠĠĠĠĠĠĠĠĠĠĠĠĠĠĠĠĠĠĠĠĠĠĠĠĠĠĠĠĠĠĠĠĠĠĠĠĠĠĠĠĠĠĠĠĠĠĠĠĠĠĠĠĠĠĠĠĠĠĠĠĠĠĠĠĠĠĠĠĠĠĠĠĠĠĠĠĠĠĠĠĠĠĠĠĠĠĠĠĠĠĠĠĠĠĠĠĠĠĠĠĠĠĠĠĠĠĠĠĠĠĠĠĠĠĠĠĠĠĠĠĠĠĠĠĠĠĠĠĠĠĠĠĠĠĠĠĠĠĠĠĠĠĠĠĠĠĠĠĠĠĠĠĠĠĠĠĠĠĠĠĠĠĠĠĠĠĠĠĠĠĠĠĠĠĠĠĠĠĠĠĠĠĠĠĠĠĠĠĠĠĠĠĠĠĠĠĠĠĠĠĠĠĠĠĠĠĠĠĠĠĠĠĠĠĠĠĠĠĠĠĠĠĠĠĠĠĠĠĠĠĠĠĠĠĠĠĠĠĠĠĠĠĠĠĠĠĠĠĠĠĠĠĠĠĠĠĠĠĠĠĠĠĠĠĠĠĠĠĠĠĠĠĠĠĠĠĠĠĠĠĠĠĠĠĠĠĠĠĠĠĠĠĠĠĠĠĠĠĠĠĠĠĠĠĠĠĠĠĠĠĠĠĠĠĠĠĠĠĠĠĠĠĠĠĠĠĠĠĠĠĠĠĠĠĠĠĠĠĠĠĠĠĠĠĠĠĠĠĠĠĠĠĠĠĠĠĠĠĠĠĠĠĠĠĠĠĠĠĠĠĠĠĠĠĠĠĠĠĠĠĠĠĠĠĠĠĠĠĠĠĠĠĠĠĠĠĠĠĠĠĠĠĠĠĠĠĠĠĠĠĠĠĠĠĠĠĠĠĠĠĠĠĠĠĠĠĠĠĠĠĠĠĠĠĠĠĠĠĠĠĠĠĠĠĠĠĠĠĠĠĠĠĠĠĠĠĠĠĠĠĠĠĠĠĠĠĠĠĠĠĠĠĠĠĠĠĠĠĠĠĠĠĠĠĠĠĠĠĠĠĠĠĠĠĠĠĠĠĠĠĠĠĠĠĠĠĠĠĠĠĠĠĠĠĠĠĠĠĠĠĠĠĠĠĠĠĠĠĠĠĠĠĠĠĠĠĠĠĠĠĠĠĠĠĠĠĠĠĠĠĠĠĠĠĠĠĠĠĠĠĠĠĠĠĠĠĠĠĠĠĠĠĠĠĠĠĠĠĠĠĠĠĠĠĠĠĠĠĠĠĠĠĠĠĠĠĠĠĠĠĠĠĠĠĠĠĠĠĠĠĠĠĠĠĠĠĠĠĠĠĠĠĠĠĠĠĠĠĠĠĠĠĠĠĠĠĠĠĠĠĠĠĠĠĠĠĠĠĠĠĠĠĠĠĠĠĠĠĠĠĠĠĠĠĠĠĠĠĠĠĠĠĠĠĠĠĠĠĠĠĠĠĠĠĠĠĠĠĠĠĠĠĠĠĠĠĠĠĠĠĠĠĠĠĠĠĠĠĠĠĠĠĠĠĠĠĠĠĠĠĠĠĠĠĠĠĠĠĠĠĠĠĠĠĠĠĠĠĠĠĠĠĠĠĠĠĠĠĠĠĠĠĠĠĠĠĠĠĠĠĠĠĠĠĠĠĠĠĠĠĠĠĠĠĠĠĠĠĠĠĠĠĠĠĠĠĠĠĠĠĠĠĠĠĠĠĠĠĠĠĠĠĠĠĠĠĠĠĠĠĠĠĠĠĠĠĠĠĠĠĠĠĠĠĠĠĠĠĠĠĠĠĠĠĠĠĠĠĠĠĠĠĠĠĠĠĠĠĠĠĠĠĠĠĠĠĠĠĠĠĠĠĠĠĠĠĠĠĠĠĠĠĠĠĠĠĠĠĠĠĠĠĠĠĠĠĠĠĠĠĠĠĠĠĠĠĠĠĠĠĠĠĠĠĠĠĠĠĠĠĠĠĠĠĠĠĠĠĠĠĠĠĠĠĠĠĠĠĠĠĠĠĠĠĠĠĠĠĠĠĠĠĠĠĠĠĠĠĠĠĠĠĠĠĠĠĠĠĠĠĠĠĠĠĠĠĠĠĠĠĠĠĠĠĠĠĠĠĠĠĠĠĠĠĠĠĠĠĠĠĠĠĠĠĠĠĠĠĠĠĠĠĠĠĠĠĠĠĠĠĠĠĠĠĠĠĠĠĠĠĠĠĠĠĠĠĠĠĠĠĠĠĠĠĠĠĠĠĠĠĠĠĠĠĠĠĠĠĠĠĠĠĠĠĠĠĠĠĠĠĠĠĠĠĠĠĠĠĠĠĠĠĠĠĠĠĠĠĠĠĠĠĠĠĠĠĠĠĠĠĠĠĠĠĠĠĠĠĠĠĠĠĠĠĠĠĠĠĠĠĠĠĠĠĠĠĠĠĠĠĠĠĠĠĠĠĠĠĠĠĠĠĠĠĠĠĠĠĠĠĠĠĠĠĠĠĠĠĠĠĠĠĠĠĠĠĠĠĠĠĠĠĠĠĠĠĠĠĠĠĠĠĠĠĠĠĠĠĠĠĠĠĠĠĠĠĠĠĠĠĠĠĠĠĠĠĠĠĠĠĠĠĠĠĠĠĠĠĠĠĠĠĠĠĠĠĠĠĠĠĠĠĠĠĠĠĠĠĠĠĠĠĠĠĠĠĠĠĠĠĠĠĠĠĠĠĠĠĠĠĠĠĠĠĠĠĠĠĠĠĠĠĠĠĠĠĠĠĠĠĠĠĠĠĠĠĠĠĠĠĠĠĠĠĠĠĠĠĠĠĠĠĠĠĠĠĠĠĠĠĠĠĠĠĠĠĠĠĠĠĠĠĠĠĠĠĠĠĠĠĠĠĠĠĠĠĠĠĠĠĠĠĠĠĠĠĠĠĠĠĠĠ": 2258,
      "ĠRos": 2259,
      "ime": 2260,
      "Ġwanita": 2261,
      "arian": 2262,
      "BN": 2263,
      "ĠDaerah": 2264,
      "ĠYo": 2265,
      "ĠWakil": 2266,
      "ĠAustralia": 2267,
      "mer": 2268,
      "anyol": 2269,
      "ukaan": 2270,
      "enderal": 2271,
      "orld": 2272,
      "ĠDur": 2273,
      "Ġprovinsi": 2274,
      "ve": 2275,
      "Ġkerus": 2276,
      "awesi": 2277,
      "ĠCer": 2278,
      "onia": 2279,
      "Ġmaka": 2280,
      "Ġkepala": 2281,
      "Ġkereta": 2282,
      "Ġmiliter": 2283,
      "ĠMic": 2284,
      "ĠMet": 2285,
      "ĠÐ": 2286,
      "Ġagar": 2287,
      "uai": 2288,
      "ilip": 2289,
      "akh": 2290,
      "lanet": 2291,
      "Ġselatan": 2292,
      "Ġrek": 2293,
      "arti": 2294,
      "ĠGl": 2295,
      "akt": 2296,
      "ĠBi": 2297,
      "Ġterc": 2298,
      "Ġlama": 2299,
      "AS": 2300,
      "Ġbukan": 2301,
      "Ġutara": 2302,
      "Ġsk": 2303,
      "Ġmeningkat": 2304,
      "Ġibu": 2305,
      "unuh": 2306,
      "Ġpan": 2307,
      "ĠKam": 2308,
      "ĠPeny": 2309,
      "ulauan": 2310,
      "ace": 2311,
      "ĠBesar": 2312,
      "Ġhubungan": 2313,
      "Ġpenulis": 2314,
      "ĠYou": 2315,
      "Ġsa": 2316,
      "ĠAfr": 2317,
      "arik": 2318,
      "urun": 2319,
      "Ġasli": 2320,
      "ultan": 2321,
      "Ġmengenai": 2322,
      "truktur": 2323,
      "Ġhak": 2324,
      "ĠMc": 2325,
      "ĠLi": 2326,
      "itus": 2327,
      "uluh": 2328,
      "rist": 2329,
      "atin": 2330,
      "formasi": 2331,
      "ĠDewan": 2332,
      "ĠLaut": 2333,
      "TV": 2334,
      "ĠHasil": 2335,
      "Ġagama": 2336,
      "Ġno": 2337,
      "ĠKol": 2338,
      "urunan": 2339,
      "ĠSulawesi": 2340,
      "ĠHo": 2341,
      "les": 2342,
      "ĠDa": 2343,
      "ĠUS": 2344,
      "Ġmemenangkan": 2345,
      "urg": 2346,
      "Ġart": 2347,
      "Ġbergabung": 2348,
      "ĠAh": 2349,
      "Ġapi": 2350,
      "abel": 2351,
      "Ġtingkat": 2352,
      "Ġtr": 2353,
      "37": 2354,
      "Ġpesawat": 2355,
      "ĠRes": 2356,
      "ĠArt": 2357,
      "alifikasi": 2358,
      "Ġperiode": 2359,
      "oks": 2360,
      "anggung": 2361,
      "Ġyak": 2362,
      "Ġmenik": 2363,
      "ba": 2364,
      "ulus": 2365,
      "andang": 2366,
      "ĠØ": 2367,
      "Ġayah": 2368,
      "Ġtimur": 2369,
      "gen": 2370,
      "oba": 2371,
      "ĠAngkatan": 2372,
      "ustri": 2373,
      "ater": 2374,
      "Ġlemb": 2375,
      "ĠWal": 2376,
      "ĠDis": 2377,
      "Ġdidirikan": 2378,
      "ubuh": 2379,
      "ean": 2380,
      "ive": 2381,
      "ĠLagu": 2382,
      "ĠJalan": 2383,
      "olusi": 2384,
      "aih": 2385,
      "08": 2386,
      "ĠKo": 2387,
      "36": 2388,
      "ĠĠĠĠĠĠĠĠĠĠĠĠĠĠĠĠĠĠĠĠĠĠĠĠĠĠĠĠĠĠĠĠĠĠĠĠĠĠĠĠĠĠĠĠĠĠĠĠĠĠĠĠĠĠĠĠĠĠĠĠĠĠĠĠĠĠĠĠĠĠĠĠĠĠĠĠĠĠĠĠĠĠĠĠĠĠĠĠĠĠĠĠĠĠĠĠĠĠĠĠĠĠĠĠĠĠĠĠĠĠĠĠĠĠĠĠĠĠĠĠĠĠĠĠĠĠĠĠĠĠĠĠĠĠĠĠĠĠĠĠĠĠĠĠĠĠĠĠĠĠĠĠĠĠĠĠĠĠĠĠĠĠĠĠĠĠĠĠĠĠĠĠĠĠĠĠĠĠĠĠĠĠĠĠĠĠĠĠĠĠĠĠ": 2389,
      "38": 2390,
      "atasan": 2391,
      "ĠSumatera": 2392,
      "Ġbuku": 2393,
      "ĠKl": 2394,
      "âĢĿ": 2395,
      "ĠStasiun": 2396,
      "ĠIni": 2397,
      "caya": 2398,
      "ĠBahasa": 2399,
      "eae": 2400,
      "ĠKej": 2401,
      "ll": 2402,
      "alon": 2403,
      "eph": 2404,
      "ĠPemerint": 2405,
      "ĠUnit": 2406,
      "isar": 2407,
      "Ġkerusakan": 2408,
      "unyai": 2409,
      "ĠBro": 2410,
      "Ġot": 2411,
      "Ġdimulai": 2412,
      "aysia": 2413,
      "Ġkej": 2414,
      "ĠDen": 2415,
      "ĠGol": 2416,
      "osa": 2417,
      "06": 2418,
      "arva": 2419,
      "ĠĠĠĠĠĠĠĠĠĠĠĠĠĠĠĠĠĠĠĠĠĠĠĠĠĠĠĠĠĠĠĠĠĠĠĠĠĠĠĠĠĠ": 2420,
      "ĠBandung": 2421,
      "ĠSpanyol": 2422,
      "ĠDep": 2423,
      "mainan": 2424,
      "Ġbelum": 2425,
      "ĠGer": 2426,
      "itania": 2427,
      "ehatan": 2428,
      "ĠLee": 2429,
      "ence": 2430,
      "ender": 2431,
      "ubahan": 2432,
      "umumkan": 2433,
      "agn": 2434,
      "07": 2435,
      "ĠĠĠĠĠĠĠĠĠĠĠĠĠĠĠĠĠĠĠĠĠĠĠĠĠĠĠĠĠĠĠĠĠĠĠĠĠĠĠĠĠĠĠĠ": 2436,
      "ĠHer": 2437,
      "ĠAngg": 2438,
      "ulit": 2439,
      "Ġlima": 2440,
      "akin": 2441,
      "uf": 2442,
      "ĠFl": 2443,
      "ĠNor": 2444,
      "Ġbelakang": 2445,
      "Ġbahan": 2446,
      "Ġdasar": 2447,
      "eth": 2448,
      "Ġprogram": 2449,
      "ĠAS": 2450,
      "39": 2451,
      "ĠAceh": 2452,
      "ĠGrand": 2453,
      "ĠĠĠĠĠĠĠĠĠĠĠĠĠĠĠĠĠĠĠĠĠĠĠĠĠĠĠĠĠĠĠĠĠĠĠĠĠĠĠĠĠĠĠ": 2454,
      "ella": 2455,
      "196": 2456,
      "Ġmengambil": 2457,
      "ihak": 2458,
      "Ġmengan": 2459,
      "ale": 2460,
      "Ġterutama": 2461,
      "adikan": 2462,
      "Ġsuku": 2463,
      "Ġ50": 2464,
      "ĠSekolah": 2465,
      "ĠKalim": 2466,
      "adem": 2467,
      "ĠKepala": 2468,
      "Ġsah": 2469,
      "Ġbabak": 2470,
      "Ġditulis": 2471,
      "Ġmempunyai": 2472,
      "Ġ-------------": 2473,
      "alaman": 2474,
      "ĠJumlah": 2475,
      "ingkungan": 2476,
      "ĠSi": 2477,
      "inggu": 2478,
      "Ġon": 2479,
      "asit": 2480,
      "Ġproduksi": 2481,
      "entu": 2482,
      "anjung": 2483,
      "ĠEx": 2484,
      "Ġ------------------------------------------------": 2485,
      "ĠGeor": 2486,
      "ensis": 2487,
      "aringan": 2488,
      "ĠColeop": 2489,
      "Ġ$": 2490,
      "ĠWorld": 2491,
      "ĠColeoptera": 2492,
      "andia": 2493,
      "04": 2494,
      "Ġger": 2495,
      "isip": 2496,
      "Ġcara": 2497,
      "raga": 2498,
      "unani": 2499,
      "ĠJos": 2500,
      "amu": 2501,
      "Ġmenulis": 2502,
      "ania": 2503,
      "etisi": 2504,
      "sip": 2505,
      "ĠBupati": 2506,
      "Ġbur": 2507,
      "zi": 2508,
      "ubern": 2509,
      "embangkan": 2510,
      "akses": 2511,
      "Ġraja": 2512,
      "Ġ---------": 2513,
      "Ġ----------------------------------------------------------------": 2514,
      "ĠMil": 2515,
      "Ġpulau": 2516,
      "enda": 2517,
      "yan": 2518,
      "own": 2519,
      "Ġ----------------------------------------": 2520,
      "ĠPri": 2521,
      "ĠBul": 2522,
      "ĠLaporan": 2523,
      "Ġterbesar": 2524,
      "ĠMalaysia": 2525,
      "Ġberubah": 2526,
      "ĠMenang": 2527,
      "Ġ1998": 2528,
      "liam": 2529,
      "Ġjalur": 2530,
      "ampu": 2531,
      "jid": 2532,
      "ĠIII": 2533,
      "istik": 2534,
      "jata": 2535,
      "Ġdibangun": 2536,
      "fat": 2537,
      "ĠKeh": 2538,
      "eder": 2539,
      "Set": 2540,
      "ool": 2541,
      "asus": 2542,
      "ainkan": 2543,
      "Ġberm": 2544,
      "Ġbudaya": 2545,
      "ĠKong": 2546,
      "ĠYork": 2547,
      "ĠKristen": 2548,
      "Ġsejumlah": 2549,
      "ĠKalimantan": 2550,
      "ĠUdara": 2551,
      "rasi": 2552,
      "Ġkat": 2553,
      "ĠISBN": 2554,
      "ĠDengan": 2555,
      "Ġtah": 2556,
      "ĠHind": 2557,
      "ampir": 2558,
      "ph": 2559,
      "Ġmobil": 2560,
      "46": 2561,
      "adaan": 2562,
      "Ġbatang": 2563,
      "ĠOn": 2564,
      "erl": 2565,
      "TA": 2566,
      "rik": 2567,
      "09": 2568,
      "yu": 2569,
      "ĠCinta": 2570,
      "Ġ35": 2571,
      "Ġseni": 2572,
      "uno": 2573,
      "ĠEpisode": 2574,
      "Ġmeskipun": 2575,
      "Ġmembentuk": 2576,
      "ty": 2577,
      "ĠPort": 2578,
      "Dalam": 2579,
      "oki": 2580,
      "Ġsumber": 2581,
      "ebar": 2582,
      "Ġmemulai": 2583,
      "oni": 2584,
      "47": 2585,
      "Ġmatahari": 2586,
      "ĠTom": 2587,
      "ontoh": 2588,
      "air": 2589,
      "Ã¶": 2590,
      "Ġkurang": 2591,
      "Ġka": 2592,
      "ĠKerajaan": 2593,
      "Ġmenemukan": 2594,
      "masing": 2595,
      "ĠPara": 2596,
      "Ġperan": 2597,
      "uangan": 2598,
      "ĠYa": 2599,
      "iti": 2600,
      "ĠPap": 2601,
      "ony": 2602,
      "ĠYunani": 2603,
      "Ġjam": 2604,
      "ĠInternasional": 2605,
      "ĠBritania": 2606,
      "ĠTNI": 2607,
      "ĠĠĠĠĠĠĠĠĠĠĠĠĠĠĠĠĠĠĠĠĠĠĠĠĠĠĠĠĠĠĠĠĠĠĠĠĠĠĠĠĠĠĠĠĠ": 2608,
      "estiv": 2609,
      "Ġmengatakan": 2610,
      "Ġyakni": 2611,
      "ĠPerd": 2612,
      "ott": 2613,
      "itam": 2614,
      "ĠLove": 2615,
      "akai": 2616,
      "Ġplanet": 2617,
      "ministr": 2618,
      "ĠâĢľ": 2619,
      "ham": 2620,
      "Ġkor": 2621,
      "Ġsaja": 2622,
      "ĠAfrika": 2623,
      "utup": 2624,
      "Ġrel": 2625,
      "uss": 2626,
      "ĠMaj": 2627,
      "Ġdiberikan": 2628,
      "Ġis": 2629,
      "Ġdepan": 2630,
      "estival": 2631,
      "amil": 2632,
      "ĠKepulauan": 2633,
      "ann": 2634,
      "BA": 2635,
      "Ġ{": 2636,
      "Ġblack": 2637,
      "Ġtubuh": 2638,
      "olo": 2639,
      "abi": 2640,
      "âĢ²âĢ²": 2641,
      "ĠKomp": 2642,
      "Ġinternasional": 2643,
      "Ġputri": 2644,
      "atuan": 2645,
      "rah": 2646,
      "tic": 2647,
      "anakan": 2648,
      "araan": 2649,
      "ungi": 2650,
      "Ġmed": 2651,
      "empuran": 2652,
      "49": 2653,
      "ĠSuk": 2654,
      "ubernur": 2655,
      "ĠĠĠĠĠĠĠĠĠĠĠĠĠĠĠĠĠĠĠĠĠĠĠĠĠĠĠĠĠĠĠĠĠĠĠĠĠĠĠĠĠĠĠĠĠĠ": 2656,
      "Ġbiasa": 2657,
      "Ġsaya": 2658,
      "akter": 2659,
      "Ġpendek": 2660,
      "de": 2661,
      "Ġmenghasilkan": 2662,
      "Ġstudi": 2663,
      "ute": 2664,
      "atuh": 2665,
      "ongan": 2666,
      "Ġkontr": 2667,
      "edral": 2668,
      "Ġmakanan": 2669,
      "wak": 2670,
      "01": 2671,
      "Ġpar": 2672,
      "Ġsebanyak": 2673,
      "Ġberarti": 2674,
      "ĠInternational": 2675,
      "ĠGold": 2676,
      "uji": 2677,
      "Ġgereja": 2678,
      "Ġtengah": 2679,
      "Ġ1990": 2680,
      "kr": 2681,
      "yn": 2682,
      "Per": 2683,
      "ĠYang": 2684,
      "55": 2685,
      "imal": 2686,
      "Ġef": 2687,
      "indah": 2688,
      "ĠCity": 2689,
      "Ġterus": 2690,
      "ĠÎ": 2691,
      "31": 2692,
      "tain": 2693,
      "Ġekonomi": 2694,
      "ajaran": 2695,
      "go": 2696,
      "ĠKons": 2697,
      "ĠĠĠĠĠĠĠĠĠĠĠĠĠĠĠĠĠĠĠĠĠĠĠĠĠĠĠĠĠĠĠĠĠĠĠĠĠĠĠĠĠĠĠĠĠĠĠ": 2698,
      "chi": 2699,
      "ee": 2700,
      "Ġkarakter": 2701,
      "Ġepisode": 2702,
      "):": 2703,
      "pada": 2704,
      "Sel": 2705,
      "unda": 2706,
      "dus": 2707,
      "ĠPark": 2708,
      "eld": 2709,
      "Ġmenikah": 2710,
      "Ġpengh": 2711,
      "Ġ-----------": 2712,
      "anduk": 2713,
      "ĠBur": 2714,
      "Ġmasing": 2715,
      "ĠBeberapa": 2716,
      "Ġmembantu": 2717,
      "Ġvideo": 2718,
      "Ġdok": 2719,
      "impi": 2720,
      "Ġtumbuhan": 2721,
      "ayar": 2722,
      "iro": 2723,
      "Ġstasiun": 2724,
      "ekerj": 2725,
      "Ġnegeri": 2726,
      "irim": 2727,
      "str": 2728,
      "Ġ1997": 2729,
      "ĠWilliam": 2730,
      "ganti": 2731,
      "ĠMay": 2732,
      "ĠSaat": 2733,
      "ĠHot": 2734,
      "Ġre": 2735,
      "ĠDo": 2736,
      "ye": 2737,
      "anak": 2738,
      "Seb": 2739,
      "ohon": 2740,
      "uskupan": 2741,
      "ĠAbdul": 2742,
      "Ġawalnya": 2743,
      "Ġkematian": 2744,
      "Ġsing": 2745,
      "ilang": 2746,
      "03": 2747,
      "ĠChrist": 2748,
      "arakan": 2749,
      "Ġproduk": 2750,
      "Ġsepanjang": 2751,
      "Ġdirinya": 2752,
      "elas": 2753,
      "ĠDin": 2754,
      "Ġ189": 2755,
      "awn": 2756,
      "Ġe": 2757,
      "ipt": 2758,
      "ĠTekn": 2759,
      "ĠUtama": 2760,
      "itt": 2761,
      "ĠUntuk": 2762,
      "gap": 2763,
      "ikit": 2764,
      "yek": 2765,
      "Ġet": 2766,
      "Ġjauh": 2767,
      "enn": 2768,
      "Ġmilik": 2769,
      "age": 2770,
      "ĠTotal": 2771,
      "antung": 2772,
      "Ġudara": 2773,
      "Ġsedangkan": 2774,
      "Ġalam": 2775,
      "ilangan": 2776,
      "Ġdiketahui": 2777,
      "elitian": 2778,
      "ĠMusic": 2779,
      "amen": 2780,
      "ĠMes": 2781,
      "uter": 2782,
      "ebang": 2783,
      "hat": 2784,
      "Ġpos": 2785,
      "ĠMusim": 2786,
      "oll": 2787,
      "ĠMart": 2788,
      "egori": 2789,
      "Ġwhite": 2790,
      "entr": 2791,
      "ĠSl": 2792,
      "ech": 2793,
      "Ġnon": 2794,
      "andi": 2795,
      "ĠFinal": 2796,
      "uel": 2797,
      "Ġsesuai": 2798,
      "sy": 2799,
      "anjian": 2800,
      "ĠGunung": 2801,
      "ĠFM": 2802,
      "58": 2803,
      "oma": 2804,
      "34": 2805,
      "Ġdes": 2806,
      "Ġ32": 2807,
      "alanan": 2808,
      "AR": 2809,
      "ĠFor": 2810,
      "isata": 2811,
      "ĠKur": 2812,
      "Ġ--------------": 2813,
      "ĠGrup": 2814,
      "ikian": 2815,
      "iminasi": 2816,
      "ĠGre": 2817,
      "âĢĻ": 2818,
      "Ġy": 2819,
      "Ġem": 2820,
      "ambar": 2821,
      "Ġmew": 2822,
      "ĠSultan": 2823,
      "ukuran": 2824,
      "ĠUl": 2825,
      "St": 2826,
      "omo": 2827,
      "uaraan": 2828,
      "Ġ=": 2829,
      "Ġ---------------": 2830,
      "Ġmesin": 2831,
      "mad": 2832,
      "Ġmenurut": 2833,
      "awab": 2834,
      "ĠPutri": 2835,
      "Ġprof": 2836,
      "ĠAnggota": 2837,
      "BS": 2838,
      "Ġ1996": 2839,
      "59": 2840,
      "port": 2841,
      "olak": 2842,
      "Ġpihak": 2843,
      "ĠPur": 2844,
      "Ġakibat": 2845,
      "Ġdel": 2846,
      "Ġbangunan": 2847,
      "ier": 2848,
      "ĠTa": 2849,
      "iana": 2850,
      "ĠAz": 2851,
      "Ġsebelah": 2852,
      "02": 2853,
      "Ġilmu": 2854,
      "oth": 2855,
      "Ġmeter": 2856,
      "istan": 2857,
      "Ġjabatan": 2858,
      "isnis": 2859,
      "Ġsungai": 2860,
      "anian": 2861,
      "ĠDPR": 2862,
      "antor": 2863,
      "Larva": 2864,
      "ĠMag": 2865,
      "ĠRah": 2866,
      "Ġmelihat": 2867,
      "iny": 2868,
      "ato": 2869,
      "ebor": 2870,
      "ĠUr": 2871,
      "elur": 2872,
      "Ġmenampilkan": 2873,
      "usa": 2874,
      "Ġed": 2875,
      "ins": 2876,
      "Ġkerja": 2877,
      "Ġkehidupan": 2878,
      "Ġdata": 2879,
      "Ġtertentu": 2880,
      "Ġberjudul": 2881,
      "56": 2882,
      "ĠUmum": 2883,
      "Ġtanduk": 2884,
      "Ġmasalah": 2885,
      "ê¦": 2886,
      "ahanan": 2887,
      "Ġmemas": 2888,
      "ĠPangeran": 2889,
      "oi": 2890,
      "ĠSil": 2891,
      "sur": 2892,
      "Ġbumi": 2893,
      "Ġkarier": 2894,
      "Ġorganisasi": 2895,
      "ambang": 2896,
      "ĠGar": 2897,
      "57": 2898,
      "engaruh": 2899,
      "Ġmengikuti": 2900,
      "abor": 2901,
      "à¤": 2902,
      "Ġmaj": 2903,
      "Ġstr": 2904,
      "Ð°": 2905,
      "Ġrendah": 2906,
      "ambahan": 2907,
      "ush": 2908,
      "oritas": 2909,
      "ĠStudi": 2910,
      "uci": 2911,
      "Ġkawasan": 2912,
      "orong": 2913,
      "ĠUni": 2914,
      "Ġmis": 2915,
      "ĠDiv": 2916,
      "Ġpermainan": 2917,
      "yata": 2918,
      "ild": 2919,
      "ĠDurasi": 2920,
      "ĠTenggara": 2921,
      "fik": 2922,
      "ĠDiakses": 2923,
      "ĠMaria": 2924,
      "Ġmenuju": 2925,
      "emuan": 2926,
      "enangan": 2927,
      "Ġpember": 2928,
      "oo": 2929,
      "Ġmenyebut": 2930,
      "Ġbatu": 2931,
      "okrat": 2932,
      "ĠĠĠĠĠĠĠĠĠĠĠĠĠĠĠĠĠĠĠĠĠĠĠĠĠĠĠĠĠĠĠĠĠĠĠĠĠĠĠĠĠĠĠĠĠĠĠĠĠĠ": 2933,
      "ĠĠĠĠĠĠĠĠĠĠĠĠĠĠĠĠĠĠĠĠĠĠĠĠĠĠĠĠĠĠĠĠĠĠĠĠĠĠĠĠĠĠĠĠĠĠĠĠĠ": 2934,
      "isaran": 2935,
      "Ġusia": 2936,
      "ĠJenderal": 2937,
      "sekarang": 2938,
      "gal": 2939,
      "Ġmah": 2940,
      "Ġkerajaan": 2941,
      "ĠJaya": 2942,
      "Setelah": 2943,
      "Ġwarga": 2944,
      "que": 2945,
      "rael": 2946,
      "ogy": 2947,
      "ps": 2948,
      "alahkan": 2949,
      "ney": 2950,
      "iputi": 2951,
      "eperti": 2952,
      "ĠPak": 2953,
      "ink": 2954,
      "ambarkan": 2955,
      "ampak": 2956,
      "use": 2957,
      "Ġmantan": 2958,
      "Ġsedikit": 2959,
      "Ġruang": 2960,
      "ĠDar": 2961,
      "laki": 2962,
      "ĠPos": 2963,
      "Ġ1995": 2964,
      "ĠAllah": 2965,
      "illa": 2966,
      "rid": 2967,
      "Ġpenghargaan": 2968,
      "otor": 2969,
      "ĠUnited": 2970,
      "ĠBabak": 2971,
      "44": 2972,
      "utuskan": 2973,
      "ĠHa": 2974,
      "Al": 2975,
      "Ġped": 2976,
      "tiwa": 2977,
      "ĠComp": 2978,
      "Ġditebang": 2979,
      "etik": 2980,
      "inj": 2981,
      "ĠZh": 2982,
      "BC": 2983,
      "ure": 2984,
      "...": 2985,
      "Ġingin": 2986,
      "der": 2987,
      "ĠSub": 2988,
      "ondisi": 2989,
      "ambyc": 2990,
      "ĠPusat": 2991,
      "ĠCerambyc": 2992,
      "ĠMor": 2993,
      "edung": 2994,
      "Ġmembawa": 2995,
      "Ġmengebor": 2996,
      "ĠCerambycidae": 2997,
      "uhkan": 2998,
      "ĠYes": 2999,
      "Ġbahkan": 3000,
      "ĠPeran": 3001,
      "ÙĦ": 3002,
      "DI": 3003,
      "ujuh": 3004,
      "dang": 3005,
      "Ġserial": 3006,
      "utradarai": 3007,
      "Ġsisi": 3008,
      "ĠSar": 3009,
      "ondon": 3010,
      "Ġpenerb": 3011,
      "KI": 3012,
      "ĠIst": 3013,
      "Ġlaki": 3014,
      "ĠForm": 3015,
      "atunya": 3016,
      "ance": 3017,
      "ĠSebagai": 3018,
      "ria": 3019,
      "ĠDavid": 3020,
      "oli": 3021,
      "ĠMi": 3022,
      "ĠCor": 3023,
      "ĠSMA": 3024,
      "Å«": 3025,
      "Ġband": 3026,
      "erit": 3027,
      "urus": 3028,
      "ĠLet": 3029,
      "Ġbeb": 3030,
      "ando": 3031,
      "imana": 3032,
      "Ġfinal": 3033,
      "ĠSuper": 3034,
      "ĠHari": 3035,
      "Ġberikutnya": 3036,
      "PP": 3037,
      "jek": 3038,
      "ĠSanto": 3039,
      "ire": 3040,
      "Ġcerita": 3041,
      "Ġlingkungan": 3042,
      "Ġmeraih": 3043,
      "ĠMiss": 3044,
      "ektr": 3045,
      "emu": 3046,
      "okasi": 3047,
      "Ġtangan": 3048,
      "ĠBintang": 3049,
      "andingkan": 3050,
      "Ġdatang": 3051,
      "Ġmeliputi": 3052,
      "ect": 3053,
      "Ġpermukaan": 3054,
      "Ġkend": 3055,
      "elis": 3056,
      "Ġtujuan": 3057,
      "Ġ188": 3058,
      "Ġ1992": 3059,
      "impinan": 3060,
      "ĠDari": 3061,
      "ĠFran": 3062,
      "Ġ1994": 3063,
      "rata": 3064,
      "ribadi": 3065,
      "Ġpenyanyi": 3066,
      "adis": 3067,
      "Ġsal": 3068,
      "ĠRobert": 3069,
      "wi": 3070,
      "ĠNg": 3071,
      "Ġtertinggi": 3072,
      "_{": 3073,
      "Ġberlangsung": 3074,
      "ĠGal": 3075,
      "Ġhampir": 3076,
      "alkan": 3077,
      "Ġdistr": 3078,
      "ĠPS": 3079,
      "ĠVal": 3080,
      "ĠAli": 3081,
      "Ġtokoh": 3082,
      "Ġistr": 3083,
      "ĠAlex": 3084,
      "Ġapa": 3085,
      "Ġdaya": 3086,
      "uma": 3087,
      "Ġdebut": 3088,
      "ĠStar": 3089,
      "Ġperubahan": 3090,
      "ĠRet": 3091,
      "ĠRakyat": 3092,
      "Ġpl": 3093,
      "Ġbintang": 3094,
      "Ġmodern": 3095,
      "ĠKemen": 3096,
      "Ġpemimpin": 3097,
      "Ġlalat": 3098,
      "Ġjaringan": 3099,
      "ĠNomor": 3100,
      "amaan": 3101,
      "ĠWilayah": 3102,
      "angkap": 3103,
      "Ġpenggunaan": 3104,
      "ayan": 3105,
      "arlemen": 3106,
      "uncak": 3107,
      "abang": 3108,
      "abaya": 3109,
      "egang": 3110,
      "utusan": 3111,
      "ogyakarta": 3112,
      "Ġserangan": 3113,
      "Ġda": 3114,
      "hael": 3115,
      "Ġkegi": 3116,
      ")[": 3117,
      "ĠRef": 3118,
      "emat": 3119,
      "Ġkegiatan": 3120,
      "Ġ----------": 3121,
      "ake": 3122,
      "ĠAll": 3123,
      "Ġmampu": 3124,
      "asia": 3125,
      "Ar": 3126,
      "ĠSun": 3127,
      "ekaisaran": 3128,
      "ĠTok": 3129,
      "warna": 3130,
      "iptakan": 3131,
      "Ġ-----------------": 3132,
      "atih": 3133,
      "ĠHol": 3134,
      "Ġdaftar": 3135,
      "ĠIsrael": 3136,
      "ker": 3137,
      "Ġdaripada": 3138,
      "Ġnomor": 3139,
      "irl": 3140,
      "Ġnilai": 3141,
      "itif": 3142,
      "Ġmendukung": 3143,
      "uman": 3144,
      "ement": 3145,
      "fl": 3146,
      "board": 3147,
      "Ġpemilihan": 3148,
      "ĠSD": 3149,
      "igh": 3150,
      "adar": 3151,
      "Ber": 3152,
      "Ġberkembang": 3153,
      "ĠJalur": 3154,
      "oa": 3155,
      "erangan": 3156,
      "ester": 3157,
      "Ġberupa": 3158,
      "An": 3159,
      "ĠUniversity": 3160,
      "unggal": 3161,
      "ene": 3162,
      "ĠLondon": 3163,
      "ett": 3164,
      "In": 3165,
      "irip": 3166,
      "eluar": 3167,
      "ahaya": 3168,
      "umur": 3169,
      "Ġpertamanya": 3170,
      "aksa": 3171,
      "artemen": 3172,
      "Ġkekuatan": 3173,
      "Ġlokal": 3174,
      "anjutkan": 3175,
      "ĠRam": 3176,
      "Ġsup": 3177,
      "por": 3178,
      "Ġå": 3179,
      "Ġmedia": 3180,
      "ĠFestival": 3181,
      "Ġangk": 3182,
      "erus": 3183,
      "ĠFak": 3184,
      "Ġtradisional": 3185,
      "aturan": 3186,
      "Ġdiperk": 3187,
      "ero": 3188,
      "ille": 3189,
      "ĠWasit": 3190,
      "ito": 3191,
      "Ġ------------------------------------": 3192,
      "Ġpawn": 3193,
      "amanan": 3194,
      "Ġadanya": 3195,
      "Ġkasus": 3196,
      "Ġsi": 3197,
      "Ġ1993": 3198,
      "istiwa": 3199,
      "Ġindustri": 3200,
      "ashi": 3201,
      "alap": 3202,
      "ibatkan": 3203,
      "Ġpembangunan": 3204,
      "ĠRa": 3205,
      "ĠMeskipun": 3206,
      "ajah": 3207,
      "uy": 3208,
      "Ġdiadakan": 3209,
      "Ġdrama": 3210,
      "iba": 3211,
      "adilan": 3212,
      "Ġmata": 3213,
      "iau": 3214,
      "hail": 3215,
      "Ġterbentuk": 3216,
      "Ġ1980": 3217,
      "ĠEv": 3218,
      "Ġperjalanan": 3219,
      "Ġmeninggalkan": 3220,
      "ultas": 3221,
      "uler": 3222,
      "ĠTo": 3223,
      "Ġ1991": 3224,
      "Ġpula": 3225,
      "ĠYah": 3226,
      "nam": 3227,
      "tab": 3228,
      "atangan": 3229,
      "ĠKarena": 3230,
      "ĠKanada": 3231,
      "Men": 3232,
      "ĠNur": 3233,
      "Ġcepat": 3234,
      "Ġkaki": 3235,
      "uasaan": 3236,
      "ings": 3237,
      "ukti": 3238,
      "Ġ45": 3239,
      "ĠPapua": 3240,
      "inis": 3241,
      "79": 3242,
      "ĠSov": 3243,
      "adian": 3244,
      "ĠInf": 3245,
      "Ġtangga": 3246,
      "Ġ--": 3247,
      "ko": 3248,
      "Ġkeber": 3249,
      "ĠSm": 3250,
      "ampuan": 3251,
      "Ġur": 3252,
      "yi": 3253,
      "Ġefek": 3254,
      "terian": 3255,
      "42": 3256,
      "Ġ36": 3257,
      "gia": 3258,
      "Ġul": 3259,
      "mat": 3260,
      "ebula": 3261,
      "amin": 3262,
      "Ġdisel": 3263,
      "ĠSain": 3264,
      "ome": 3265,
      "mar": 3266,
      "Ġkuat": 3267,
      "ĠKetika": 3268,
      "ĠSab": 3269,
      "etapkan": 3270,
      "anjutnya": 3271,
      "asiswa": 3272,
      "ĠYogyakarta": 3273,
      "impiade": 3274,
      "Ġgol": 3275,
      "ekerjaan": 3276,
      "akaan": 3277,
      "ical": 3278,
      "Ġzaman": 3279,
      "Ġberakhir": 3280,
      "ĠDel": 3281,
      "ĠTinggi": 3282,
      "Ġdemikian": 3283,
      "ingkatan": 3284,
      "Ġmemutuskan": 3285,
      "ĠMeng": 3286,
      "ĠBa": 3287,
      "Ġmemilih": 3288,
      "ike": 3289,
      "Ġbuah": 3290,
      "its": 3291,
      "ugh": 3292,
      "els": 3293,
      "Ġulang": 3294,
      "iw": 3295,
      "Ġmendirikan": 3296,
      "][": 3297,
      "ĠSingap": 3298,
      "ĠWe": 3299,
      "ĠJames": 3300,
      "Ġtampil": 3301,
      "akup": 3302,
      "ci": 3303,
      "uddin": 3304,
      "ĠRadio": 3305,
      "ĠBill": 3306,
      "Ġenam": 3307,
      "Ġdiberi": 3308,
      "arsip": 3309,
      "pe": 3310,
      "41": 3311,
      "Ġberwarna": 3312,
      "esaikan": 3313,
      "ĠĠĠĠĠĠĠĠĠĠĠĠĠĠĠĠĠĠĠĠĠĠĠĠĠĠĠĠĠĠĠĠĠĠĠĠĠĠĠĠĠĠĠĠĠĠĠĠĠĠĠĠĠ": 3314,
      "ĠKarya": 3315,
      "ĠFI": 3316,
      "ĠMark": 3317,
      "elar": 3318,
      "ĠPaul": 3319,
      "ĠBali": 3320,
      "ĠDiptera": 3321,
      "ĠLalat": 3322,
      "ĠSim": 3323,
      "ĠAri": 3324,
      "ĠMod": 3325,
      "ĠHy": 3326,
      "Ġpribadi": 3327,
      "ĠTai": 3328,
      "Ġtercatat": 3329,
      "intangi": 3330,
      "ĠMenurut": 3331,
      "ĠMari": 3332,
      "anjar": 3333,
      "ĠSoviet": 3334,
      "Ġterbaik": 3335,
      "agaimana": 3336,
      "ĠKarier": 3337,
      "Ġinformasi": 3338,
      "2019": 3339,
      "ĠSurabaya": 3340,
      "Ġpat": 3341,
      "iring": 3342,
      "99": 3343,
      "Ġgaya": 3344,
      "Ġnebula": 3345,
      "AM": 3346,
      "Ġhutan": 3347,
      "taf": 3348,
      "Ġsurat": 3349,
      "68": 3350,
      "ĠFilip": 3351,
      "ĠĠĠĠĠĠĠĠĠĠĠĠĠĠĠĠĠĠĠĠĠĠĠĠĠĠĠĠĠĠĠĠĠĠĠĠĠĠĠĠĠĠĠĠĠĠĠĠĠĠĠ": 3352,
      "ĠRed": 3353,
      "Ġmalam": 3354,
      "Ġberg": 3355,
      "ĠCharl": 3356,
      "ijakan": 3357,
      "aksana": 3358,
      "75": 3359,
      "ĠKemudian": 3360,
      "ĠJul": 3361,
      "epatan": 3362,
      "Ġmodel": 3363,
      "ĠSu": 3364,
      "okal": 3365,
      "ĠTanjung": 3366,
      "Ġarah": 3367,
      "ahli": 3368,
      "Ġlayanan": 3369,
      "ĠKedua": 3370,
      "Ġmeningkatkan": 3371,
      "Ġputih": 3372,
      "gus": 3373,
      "Ġmerah": 3374,
      "arsipkan": 3375,
      "hana": 3376,
      "ign": 3377,
      "iru": 3378,
      "ĠAman": 3379,
      "oman": 3380,
      "ĠSong": 3381,
      "Ġaktif": 3382,
      "Ġmengak": 3383,
      "eluruhan": 3384,
      "43": 3385,
      "eorang": 3386,
      "omat": 3387,
      "Ġberper": 3388,
      "uck": 3389,
      "ergi": 3390,
      "Ġlokasi": 3391,
      "AT": 3392,
      "ĠHen": 3393,
      "Ġwarna": 3394,
      "Ð¾": 3395,
      "tivitas": 3396,
      "uruan": 3397,
      "oin": 3398,
      "ten": 3399,
      "estasi": 3400,
      "ĠSang": 3401,
      "ĠFo": 3402,
      "Ġsesuatu": 3403,
      "Ġperingkat": 3404,
      "anyakan": 3405,
      "ck": 3406,
      "ĠĠĠĠĠĠĠĠĠĠĠĠĠĠĠĠĠĠĠĠĠĠĠĠĠĠĠĠĠĠĠĠĠĠĠĠĠĠĠĠĠĠĠĠĠĠĠĠĠĠĠĠĠĠ": 3407,
      "Ġ33": 3408,
      "iaya": 3409,
      "bon": 3410,
      "ĠSementara": 3411,
      "Ġterkait": 3412,
      "Ġtua": 3413,
      "ĠUs": 3414,
      "igi": 3415,
      "lmu": 3416,
      "TC": 3417,
      "estan": 3418,
      "Ġiklim": 3419,
      "ĠPemeran": 3420,
      "kota": 3421,
      "wakilan": 3422,
      "agangan": 3423,
      "ican": 3424,
      "ĠEnter": 3425,
      "ukul": 3426,
      "ĠBant": 3427,
      "Ġkita": 3428,
      "Ġorbit": 3429,
      "ER": 3430,
      "ĠOs": 3431,
      "Ġmencakup": 3432,
      "Ġmemberi": 3433,
      "ĠPK": 3434,
      "Ġselalu": 3435,
      "amai": 3436,
      "ise": 3437,
      "Ġpartai": 3438,
      "ĠĠĠĠĠĠĠĠĠĠĠĠĠĠĠĠĠĠĠĠĠĠĠĠĠĠĠĠĠĠĠĠĠĠĠĠĠĠĠĠĠĠĠĠĠĠĠĠĠĠĠĠ": 3439,
      "Ġkeras": 3440,
      "ĠDiarsipkan": 3441,
      "Ġterpilih": 3442,
      "ĠMoh": 3443,
      "Ġsemakin": 3444,
      "ubung": 3445,
      "Ch": 3446,
      "Ġ38": 3447,
      "ĠSed": 3448,
      "ĠSum": 3449,
      "ĠGubernur": 3450,
      "che": 3451,
      "Ø§": 3452,
      "IN": 3453,
      "Ġop": 3454,
      "ĠJuara": 3455,
      "iki": 3456,
      "ĠMis": 3457,
      "ĠUp": 3458,
      "Ġmempert": 3459,
      "ĠOb": 3460,
      "Ġdisutradarai": 3461,
      "ĠRec": 3462,
      "ĠParis": 3463,
      "70": 3464,
      "ys": 3465,
      "Ġketurunan": 3466,
      "ĠPerdana": 3467,
      "ĠâĪĴ": 3468,
      "ĠBank": 3469,
      "ĠBandar": 3470,
      "egal": 3471,
      "ĠMichael": 3472,
      "Ġmengk": 3473,
      "Ġikut": 3474,
      "ĠBers": 3475,
      "udo": 3476,
      "66": 3477,
      "\")": 3478,
      "ahl": 3479,
      "Ġlog": 3480,
      "ungkinkan": 3481,
      "ĠKehidupan": 3482,
      "ĠDivisi": 3483,
      "ume": 3484,
      "esh": 3485,
      "Ġmengumumkan": 3486,
      "Ġdimana": 3487,
      "erik": 3488,
      "Un": 3489,
      "Ġpenuh": 3490,
      "Ġbangsa": 3491,
      "ĠPenonton": 3492,
      "ektor": 3493,
      "ĠCatatan": 3494,
      "off": 3495,
      "amar": 3496,
      "ikel": 3497,
      "Ġmembangun": 3498,
      "erv": 3499,
      "Ġmak": 3500,
      "Ġmemperoleh": 3501,
      "Ġbant": 3502,
      "ere": 3503,
      "Ġikan": 3504,
      "Ġsis": 3505,
      "Ġtepat": 3506,
      "by": 3507,
      "ĠMul": 3508,
      "Ġch": 3509,
      "Ġdita": 3510,
      "ĠIlmu": 3511,
      "Ġunit": 3512,
      "Ġkeseluruhan": 3513,
      "Ġint": 3514,
      "arg": 3515,
      "aksanakan": 3516,
      "my": 3517,
      "Ġ1989": 3518,
      "Ġ978": 3519,
      "ĠTanggal": 3520,
      "andan": 3521,
      "osh": 3522,
      "ĠPemerintah": 3523,
      "Ġbersi": 3524,
      "ajak": 3525,
      "hailand": 3526,
      "irkan": 3527,
      "Ġx": 3528,
      "ĠĠĠĠĠĠĠĠĠĠĠĠĠĠĠĠĠĠĠĠĠĠĠĠĠĠĠĠĠĠĠĠĠĠĠĠĠĠĠĠĠĠĠĠĠĠĠĠĠĠĠĠĠĠĠ": 3529,
      "obal": 3530,
      "cana": 3531,
      "ĠProgram": 3532,
      "ander": 3533,
      "Ġfis": 3534,
      "Ġistilah": 3535,
      "ĠMur": 3536,
      "ĠWay": 3537,
      "atihan": 3538,
      "ĠRomawi": 3539,
      "Ð¸": 3540,
      "sel": 3541,
      "enggarakan": 3542,
      "asta": 3543,
      "ĠQu": 3544,
      "Ġadministr": 3545,
      "ĠOlimpiade": 3546,
      "eluarkan": 3547,
      "luk": 3548,
      "Ġkondisi": 3549,
      "atkan": 3550,
      "evolusi": 3551,
      "ĠNe": 3552,
      "Ġkamp": 3553,
      "film": 3554,
      "ĠSaty": 3555,
      "Ġpenelitian": 3556,
      "erasi": 3557,
      "2024": 3558,
      "Ġdiproduksi": 3559,
      "berg": 3560,
      "Peng": 3561,
      "ĠĠĠĠĠĠĠĠĠĠĠĠĠĠĠĠĠĠĠĠĠĠĠĠĠĠĠĠĠĠĠĠĠĠĠĠĠĠĠĠĠĠĠĠĠĠĠĠĠĠĠĠĠĠĠĠĠĠĠĠ": 3562,
      "ĠPortug": 3563,
      "ãĥ¼": 3564,
      "ipe": 3565,
      "olis": 3566,
      "Ġsy": 3567,
      "Ġim": 3568,
      "app": 3569,
      "Ġbertemu": 3570,
      "burg": 3571,
      "ĠFC": 3572,
      "Ġhlm": 3573,
      "enter": 3574,
      "ĠAv": 3575,
      "ĠIl": 3576,
      "Ġbalapan": 3577,
      "ĠRad": 3578,
      "asilitas": 3579,
      "Ġpergi": 3580,
      "ovel": 3581,
      "ĠMF": 3582,
      "ukses": 3583,
      "ĠDay": 3584,
      "Ġtitik": 3585,
      "ĠAf": 3586,
      "Ġpec": 3587,
      "askah": 3588,
      "Ġkekuasaan": 3589,
      "ĠRumah": 3590,
      "itasi": 3591,
      "acam": 3592,
      "ĠRich": 3593,
      "ops": 3594,
      "duser": 3595,
      "ago": 3596,
      "ĠLu": 3597,
      "ĠNa": 3598,
      "stitusi": 3599,
      "itra": 3600,
      "ĠKeuskupan": 3601,
      "Ġsakit": 3602,
      "Ġberat": 3603,
      "Ġdipimpin": 3604,
      "ĠKi": 3605,
      "ĠOrang": 3606,
      "77": 3607,
      "ĠKejuaraan": 3608,
      "Ġform": 3609,
      "uhi": 3610,
      "ics": 3611,
      "ĠGolkar": 3612,
      "ĊĠĠĠ": 3613,
      "ĠDon": 3614,
      "bi": 3615,
      "Ġfungsi": 3616,
      "Ġtentara": 3617,
      "53": 3618,
      "Ġpanas": 3619,
      "ĠSid": 3620,
      "aji": 3621,
      "ĠBu": 3622,
      "Ġtugas": 3623,
      "egis": 3624,
      "ĠSuara": 3625,
      "itung": 3626,
      "ambah": 3627,
      "Ġgaris": 3628,
      "ĠDemokrat": 3629,
      "ĠId": 3630,
      "alancana": 3631,
      "Ġpenyel": 3632,
      "2010": 3633,
      "ĠCir": 3634,
      "Ġ34": 3635,
      "enti": 3636,
      "Ġwith": 3637,
      "----------------------------------------------------------------------------------------------------------------------------------------------------------------------------------------------------------------------------------------------------------------": 3638,
      "Ġdar": 3639,
      "artisip": 3640,
      "Ġhid": 3641,
      "Ġuang": 3642,
      "ĠMesir": 3643,
      "Ġmenand": 3644,
      "iknya": 3645,
      "ĠSri": 3646,
      "Ġahli": 3647,
      "ado": 3648,
      "Ġpresiden": 3649,
      "ĠChamp": 3650,
      "ental": 3651,
      "dalam": 3652,
      "imia": 3653,
      "apor": 3654,
      "ĠSatyalancana": 3655,
      "Ġsin": 3656,
      "ford": 3657,
      "ĠData": 3658,
      "ĠKementerian": 3659,
      "Ġmemungkinkan": 3660,
      "ĠMuseum": 3661,
      "Ġ1988": 3662,
      "ĠThailand": 3663,
      "ĠĠĠĠĠĠĠĠĠĠĠĠĠĠĠĠĠĠĠĠĠĠĠĠĠĠĠĠĠĠĠĠĠĠĠĠĠĠĠĠĠĠĠĠĠĠĠĠĠĠĠĠĠĠĠĠ": 3664,
      "Ġalat": 3665,
      "Ġï»¿": 3666,
      "ĠKelurahan": 3667,
      "indakan": 3668,
      "Ġpasar": 3669,
      "ejo": 3670,
      "Ġkemampuan": 3671,
      "ĠHong": 3672,
      "Seperti": 3673,
      "undang": 3674,
      "Ġbelajar": 3675,
      "Ã¨": 3676,
      "52": 3677,
      "tri": 3678,
      "ĠHam": 3679,
      "Ġpopuler": 3680,
      "ĠKen": 3681,
      "eet": 3682,
      "ipta": 3683,
      "Ġmon": 3684,
      "2020": 3685,
      "ewi": 3686,
      "Ġmenggantikan": 3687,
      "ĠBudd": 3688,
      "itis": 3689,
      "ĠSir": 3690,
      "abu": 3691,
      "Ġmenjel": 3692,
      "amah": 3693,
      "Ġpindah": 3694,
      "engahan": 3695,
      "arto": 3696,
      "Ðµ": 3697,
      "ĠJack": 3698,
      "Ġsu": 3699,
      "ekaan": 3700,
      "54": 3701,
      "are": 3702,
      "umpang": 3703,
      "arm": 3704,
      "Ġlistrik": 3705,
      "Ġpengg": 3706,
      "PN": 3707,
      "ĠDistrik": 3708,
      "ĠRoma": 3709,
      "negara": 3710,
      "Ġmemperk": 3711,
      "Ġ90": 3712,
      "ĠBanjar": 3713,
      "bert": 3714,
      "ĠFakultas": 3715,
      "2014": 3716,
      "ĠDua": 3717,
      "arikan": 3718,
      "egun": 3719,
      "ĠPosisi": 3720,
      "ĠAnak": 3721,
      "Ġbisnis": 3722,
      "Ġ60": 3723,
      "Ġpenyakit": 3724,
      "Ġpantai": 3725,
      "ram": 3726,
      "ĠFer": 3727,
      "Ġmenjalan": 3728,
      "ague": 3729,
      "Ġsitus": 3730,
      "88": 3731,
      "ĠTaman": 3732,
      "aly": 3733,
      "Ġ1970": 3734,
      "ĠTurki": 3735,
      "ĠJun": 3736,
      "Ġmerek": 3737,
      "ĠNas": 3738,
      "Ġpria": 3739,
      "eni": 3740,
      "Ġmagn": 3741,
      "Ġberf": 3742,
      "Ġdibentuk": 3743,
      "Ġkemenangan": 3744,
      "agam": 3745,
      "Ġmencari": 3746,
      "Ġkualifikasi": 3747,
      "apun": 3748,
      "Ġpublik": 3749,
      "Ġinv": 3750,
      "mark": 3751,
      "antik": 3752,
      "enalkan": 3753,
      "ĠĠĠĠĠĠĠĠĠĠĠĠĠĠĠĠĠĠĠĠĠĠĠĠĠĠĠĠĠĠĠĠĠĠĠĠĠĠĠĠĠĠĠĠĠĠĠĠĠĠĠĠĠĠĠĠĠ": 3754,
      "ĠGeorge": 3755,
      "Ġpopulasi": 3756,
      "anti": 3757,
      "ayaan": 3758,
      "51": 3759,
      "âĪĴ": 3760,
      "omas": 3761,
      "epas": 3762,
      "Ġteknologi": 3763,
      "ĠĠĠĠĠĠĠĠĠĠĠĠĠĠĠĠĠĠĠĠĠĠĠĠĠĠĠĠĠĠĠĠĠĠĠĠĠĠĠĠĠĠĠĠĠĠĠĠĠĠĠĠĠĠĠĠĠĠĠĠĠĠĠ": 3764,
      "ower": 3765,
      "SI": 3766,
      "Ġtambahan": 3767,
      "Ġkini": 3768,
      "ano": 3769,
      "Ġoperasi": 3770,
      "andangan": 3771,
      "ĠSoc": 3772,
      "enaga": 3773,
      "Ġhewan": 3774,
      "ĠÅ": 3775,
      "ĠDj": 3776,
      "ĠTor": 3777,
      "alahan": 3778,
      "ĠSingapura": 3779,
      "ĠUE": 3780,
      "over": 3781,
      "ivid": 3782,
      "ĠCarl": 3783,
      "Ġkesehatan": 3784,
      "ĠFilipina": 3785,
      "Ġ-------------------": 3786,
      "ĠSatu": 3787,
      "via": 3788,
      "ein": 3789,
      "Ġproyek": 3790,
      "Ġhitam": 3791,
      "intu": 3792,
      "udukan": 3793,
      "faat": 3794,
      "ĠPemain": 3795,
      "Ġstruktur": 3796,
      "ĠDF": 3797,
      "Ġ1986": 3798,
      "Ġmeminta": 3799,
      "ĠIV": 3800,
      "ĠBrasil": 3801,
      "sch": 3802,
      "ĠEur": 3803,
      "76": 3804,
      "Ġrasa": 3805,
      "ĠPolandia": 3806,
      "erdekaan": 3807,
      "Ġmenarik": 3808,
      "Ġsaudara": 3809,
      "ĠAda": 3810,
      "Ġkeempat": 3811,
      "abuhan": 3812,
      "row": 3813,
      "ON": 3814,
      "inda": 3815,
      "ĠRI": 3816,
      "osis": 3817,
      "ä¸": 3818,
      "ĠAss": 3819,
      "empur": 3820,
      "ungkinan": 3821,
      "Ġduk": 3822,
      "ĠEntertain": 3823,
      "ole": 3824,
      "Ġder": 3825,
      "ĠMac": 3826,
      "ington": 3827,
      "ĠKing": 3828,
      "Ġjatuh": 3829,
      "agus": 3830,
      "Ġla": 3831,
      "gn": 3832,
      "sit": 3833,
      "Ġkeduanya": 3834,
      "Ġprofesi": 3835,
      "leks": 3836,
      "ĠBoy": 3837,
      "Ġ39": 3838,
      "urnamen": 3839,
      "ediakan": 3840,
      "way": 3841,
      "Ġ1987": 3842,
      "ĠMusik": 3843,
      "ĠĠĠĠĠĠĠĠĠĠĠĠĠĠĠĠĠĠĠĠĠĠĠĠĠĠĠĠĠĠĠĠĠĠĠĠĠĠĠĠĠĠĠĠĠĠĠĠĠĠĠĠĠĠĠĠĠĠ": 3844,
      "yr": 3845,
      "Ġdiangkat": 3846,
      "ĠPertama": 3847,
      "ĠEng": 3848,
      "ĠPadang": 3849,
      "ĠKomun": 3850,
      "uncurkan": 3851,
      "Ġayahnya": 3852,
      "alang": 3853,
      "MA": 3854,
      "jau": 3855,
      "Ġrata": 3856,
      "Ġpad": 3857,
      "Ġjarak": 3858,
      "ĠMont": 3859,
      "Ġsempat": 3860,
      "itur": 3861,
      "Ġpengembangan": 3862,
      "ĠInstit": 3863,
      "ese": 3864,
      "ĠShow": 3865,
      "do": 3866,
      "ĠProf": 3867,
      "com": 3868,
      "ĠLib": 3869,
      "iling": 3870,
      "Ġberisi": 3871,
      "ĠLatin": 3872,
      "Ġbebas": 3873,
      "ĠPerj": 3874,
      "emui": 3875,
      "Ġdigital": 3876,
      "lav": 3877,
      "ĠAustria": 3878,
      "Ġpemeran": 3879,
      "ĠRatu": 3880,
      "astra": 3881,
      "idi": 3882,
      "aktor": 3883,
      "ĠVol": 3884,
      "ĠBagian": 3885,
      "erg": 3886,
      "esai": 3887,
      "ĠCan": 3888,
      "enj": 3889,
      "ĠDani": 3890,
      "red": 3891,
      "Ġmenjadikan": 3892,
      "ĠEntertainment": 3893,
      "unjukan": 3894,
      "satunya": 3895,
      "rov": 3896,
      "ĠEliminasi": 3897,
      "ĠAgama": 3898,
      "Ġmut": 3899,
      "aikan": 3900,
      "tim": 3901,
      "ĠGolden": 3902,
      "laba": 3903,
      "icara": 3904,
      "ĠFir": 3905,
      "utif": 3906,
      "inn": 3907,
      "Ġam": 3908,
      "ife": 3909,
      "okus": 3910,
      "Ġgug": 3911,
      "Ġjawab": 3912,
      "ĠGirl": 3913,
      "iang": 3914,
      "enteng": 3915,
      "Ġ37": 3916,
      "Ġpenampilan": 3917,
      "unggu": 3918,
      "ĠYahudi": 3919,
      ");": 3920,
      "Ġmerilis": 3921,
      "ĠPic": 3922,
      "CA": 3923,
      "ĠBah": 3924,
      "ĠKekaisaran": 3925,
      "ĠVic": 3926,
      "2017": 3927,
      "69": 3928,
      "Ġby": 3929,
      "ulasi": 3930,
      "ĠIk": 3931,
      "2015": 3932,
      "Ġ1960": 3933,
      "epend": 3934,
      "ile": 3935,
      "ĠBab": 3936,
      "Ġgerakan": 3937,
      "assar": 3938,
      "Ġfr": 3939,
      "ĠBos": 3940,
      "osp": 3941,
      "Ġterlihat": 3942,
      "Ġbak": 3943,
      "Ġtek": 3944,
      "Ġteman": 3945,
      "ĠDusun": 3946,
      "Ġì": 3947,
      "uruf": 3948,
      "Ġelektr": 3949,
      "Ġmelanjutkan": 3950,
      "Ġsekaligus": 3951,
      "aina": 3952,
      "Ġinter": 3953,
      "Ġbantuan": 3954,
      "ĠAngel": 3955,
      "jana": 3956,
      "ĠSchool": 3957,
      "Ġæ": 3958,
      "Ġmencoba": 3959,
      "2009": 3960,
      "ĠCap": 3961,
      "embaga": 3962,
      "2016": 3963,
      "ikahan": 3964,
      "ales": 3965,
      "ifat": 3966,
      "ST": 3967,
      "Ġrep": 3968,
      "wal": 3969,
      "ason": 3970,
      "ĠPrix": 3971,
      "ĠKaisar": 3972,
      "Ġhi": 3973,
      "agang": 3974,
      "antara": 3975,
      "ietnam": 3976,
      "Ġpasangan": 3977,
      "Ġperdana": 3978,
      "olahraga": 3979,
      "evel": 3980,
      "ibusi": 3981,
      "PI": 3982,
      "fikasi": 3983,
      "Ġmenit": 3984,
      "OR": 3985,
      "Ġrakyat": 3986,
      "asinya": 3987,
      "Ġsenjata": 3988,
      "ĠKas": 3989,
      "ĠPe": 3990,
      "Äĩ": 3991,
      "ĠSelama": 3992,
      "sik": 3993,
      "Ġsar": 3994,
      "Ġsana": 3995,
      "mon": 3996,
      "ĠEs": 3997,
      "Ġ1985": 3998,
      "2011": 3999,
      "Ã¤": 4000,
      "Ġpekerjaan": 4001,
      "uning": 4002,
      "artisipasi": 4003,
      "alikan": 4004,
      "ĠPutra": 4005,
      "Ġmengubah": 4006,
      "Ġperh": 4007,
      "ahankan": 4008,
      "enarnya": 4009,
      "Ġanti": 4010,
      "uhnya": 4011,
      "ĠDom": 4012,
      "ario": 4013,
      "itkan": 4014,
      "Ġgl": 4015,
      "2012": 4016,
      "ĠKont": 4017,
      "Ġmul": 4018,
      "raf": 4019,
      "Ġmengalahkan": 4020,
      "ĠTw": 4021,
      "ĠRh": 4022,
      "Ġpej": 4023,
      "Ġmemimpin": 4024,
      "aporkan": 4025,
      "alitas": 4026,
      "ĠAnt": 4027,
      "ãģ®": 4028,
      "2018": 4029,
      "Ġmenolak": 4030,
      "ĠPeringkat": 4031,
      "Ġradio": 4032,
      "ukit": 4033,
      "esis": 4034,
      "resi": 4035,
      "ĠNat": 4036,
      "yl": 4037,
      "Ġmudah": 4038,
      "gerak": 4039,
      "ĠOper": 4040,
      "ĠRS": 4041,
      "ĠMach": 4042,
      "80": 4043,
      "Ġpenerbangan": 4044,
      "Lalat": 4045,
      "elahiran": 4046,
      "ademy": 4047,
      "ĠColl": 4048,
      "engaruhi": 4049,
      "ejak": 4050,
      "ĠTanah": 4051,
      "yangkan": 4052,
      "67": 4053,
      "ĠTang": 4054,
      "egitu": 4055,
      "2013": 4056,
      "ulat": 4057,
      "ĠIbu": 4058,
      "Ġmenyelesaikan": 4059,
      "egunungan": 4060,
      "ident": 4061,
      "Ġburung": 4062,
      "Ġ------------------": 4063,
      "ĠMuslim": 4064,
      "ĠYear": 4065,
      "^{": 4066,
      "Ġge": 4067,
      "Ġmati": 4068,
      "ĠMem": 4069,
      "orium": 4070,
      "Ġmengembangkan": 4071,
      "Ġberusia": 4072,
      "Ġ,": 4073,
      "Ġterlibat": 4074,
      "ĠBadan": 4075,
      "Ġdibandingkan": 4076,
      "zh": 4077,
      "ĠTuhan": 4078,
      "omba": 4079,
      "ĠTBA": 4080,
      "ujan": 4081,
      "Ġobat": 4082,
      "Ġdistrik": 4083,
      "mo": 4084,
      "ĠPemilihan": 4085,
      "Ġ1984": 4086,
      "Ġperkembangan": 4087,
      "ĠBumi": 4088,
      "ico": 4089,
      "tan": 4090,
      "ĠNi": 4091,
      "ĠBh": 4092,
      "Ġbarang": 4093,
      "ĠAhmad": 4094,
      "ĠSaint": 4095,
      "ĠMedia": 4096,
      "Ġbek": 4097,
      "iver": 4098,
      "asik": 4099,
      "empatkan": 4100,
      "Ġstatus": 4101,
      "akili": 4102,
      "Ġprim": 4103,
      "ions": 4104,
      "oris": 4105,
      "ĠAkhir": 4106,
      "Ġkil": 4107,
      "Ð½": 4108,
      "ĠUkr": 4109,
      "ĠLou": 4110,
      "ewasa": 4111,
      "ĠPaus": 4112,
      "2008": 4113,
      "ĠâĻ": 4114,
      "ĠVietnam": 4115,
      "ider": 4116,
      "ĠUEFA": 4117,
      "ĠĠĠĠĠĠĠĠĠĠĠĠĠĠĠĠĠĠĠĠĠĠĠĠĠĠĠĠĠĠĠĠĠĠĠĠĠĠĠĠĠĠĠĠĠĠĠĠĠĠĠĠĠĠĠĠĠĠĠ": 4118,
      "ĠCharles": 4119,
      "adir": 4120,
      "Ġperangkat": 4121,
      "Ġcontoh": 4122,
      "Ġ1982": 4123,
      "Ġupaya": 4124,
      "ury": 4125,
      "alaupun": 4126,
      "Ġolahraga": 4127,
      "endera": 4128,
      "AL": 4129,
      "Ġseseorang": 4130,
      "agal": 4131,
      "ĠGa": 4132,
      "Ġkhas": 4133,
      "retaris": 4134,
      "Ġusaha": 4135,
      "ĠBay": 4136,
      "ĠChart": 4137,
      "anga": 4138,
      "Ġmenggambarkan": 4139,
      "ekar": 4140,
      "Ġsur": 4141,
      "Ġkulit": 4142,
      "osiasi": 4143,
      "Ġmenemp": 4144,
      "',": 4145,
      "eria": 4146,
      "ĠTelevisi": 4147,
      "Ġpuncak": 4148,
      "Ġnovel": 4149,
      "ĠBol": 4150,
      "angkaian": 4151,
      "ĠVen": 4152,
      "Ġpot": 4153,
      "2021": 4154,
      "Ġberbasis": 4155,
      "etahuan": 4156,
      "tasi": 4157,
      "ĠBlack": 4158,
      "erahkan": 4159,
      "Ġputaran": 4160,
      "ajang": 4161,
      "mus": 4162,
      "ĠSebelum": 4163,
      "dy": 4164,
      "aceae": 4165,
      "ĠBad": 4166,
      "Ġkabupaten": 4167,
      "------------": 4168,
      "eck": 4169,
      "ĠHung": 4170,
      "Ġberdiri": 4171,
      "ĠBog": 4172,
      "ĠTokyo": 4173,
      "ition": 4174,
      "opi": 4175,
      "ĠNational": 4176,
      "erj": 4177,
      "ujung": 4178,
      "Ġmenghadap": 4179,
      "Ġvan": 4180,
      "2007": 4181,
      "ĠSud": 4182,
      "wood": 4183,
      "Sh": 4184,
      "usak": 4185,
      "Ġantaranya": 4186,
      "Ġmenyer": 4187,
      "jualan": 4188,
      "ombang": 4189,
      "Ġins": 4190,
      "Ġft": 4191,
      "Ep": 4192,
      "itz": 4193,
      "rav": 4194,
      "ahulu": 4195,
      "ĠTempat": 4196,
      "Ġpertanian": 4197,
      "ÑĢ": 4198,
      "Ġemas": 4199,
      "uke": 4200,
      "Ġkebijakan": 4201,
      "ĠSol": 4202,
      "ĠHukum": 4203,
      "Ġkursi": 4204,
      "89": 4205,
      "Ġbelas": 4206,
      "udayaan": 4207,
      "ĠDrama": 4208,
      "Ġtiba": 4209,
      "intas": 4210,
      "Ġbenar": 4211,
      "Ġmengand": 4212,
      "ady": 4213,
      "TI": 4214,
      "Ġtanaman": 4215,
      "irakan": 4216,
      "awang": 4217,
      "Ġmenciptakan": 4218,
      "wang": 4219,
      "Ġkemungkinan": 4220,
      "Ġterbuka": 4221,
      "ors": 4222,
      "Ġtersedia": 4223,
      "ekat": 4224,
      "ĠBas": 4225,
      "Ġmerasa": 4226,
      "Ġaktor": 4227,
      "imen": 4228,
      "Ġditayangkan": 4229,
      "ĠWest": 4230,
      "Ġmengirim": 4231,
      "Ġmur": 4232,
      "ĠWh": 4233,
      "Ġtindakan": 4234,
      "Ġgambar": 4235,
      "ĠLampung": 4236,
      "bar": 4237,
      "Ġsh": 4238,
      "Ġperistiwa": 4239,
      "ĠRoy": 4240,
      "inus": 4241,
      "Ġdiperl": 4242,
      "hoa": 4243,
      "Ġ(\"": 4244,
      "ĠTs": 4245,
      "III": 4246,
      "ĠThomas": 4247,
      "Ġmirip": 4248,
      "Ġreg": 4249,
      "Ġberjalan": 4250,
      "ĠPad": 4251,
      "aram": 4252,
      "Ġpeserta": 4253,
      "ward": 4254,
      "ohan": 4255,
      "aha": 4256,
      "Ġ1983": 4257,
      "ĠChampions": 4258,
      "ĠSalah": 4259,
      "Ġprofesional": 4260,
      "ux": 4261,
      "2005": 4262,
      "ĠSumber": 4263,
      "ĠComm": 4264,
      "ajemen": 4265,
      "Ġberbentuk": 4266,
      "ĠKy": 4267,
      "Ġmewakili": 4268,
      "ÙĬ": 4269,
      "onis": 4270,
      "Ġdom": 4271,
      "lor": 4272,
      "Ġgagal": 4273,
      "Ġ1950": 4274,
      "ĠFrank": 4275,
      "likasi": 4276,
      "Ġcm": 4277,
      "ĠLo": 4278,
      "ĠĠĠĠĠĠĠĠĠĠĠĠĠĠĠĠĠĠĠĠĠĠĠĠĠĠĠĠĠĠĠĠĠĠĠĠĠĠĠĠĠĠĠĠĠĠĠĠĠĠĠĠĠĠĠĠĠĠĠĠĠ": 4279,
      "Ùħ": 4280,
      "Ind": 4281,
      "Ġkompetisi": 4282,
      "isk": 4283,
      "ling": 4284,
      "Ġpohon": 4285,
      "ayani": 4286,
      "ĠUTC": 4287,
      "Ġdiambil": 4288,
      "ept": 4289,
      "akaian": 4290,
      "ĠSak": 4291,
      "Ġberperan": 4292,
      "Ġistri": 4293,
      "ĠTar": 4294,
      "64": 4295,
      "ĠRichard": 4296,
      "ster": 4297,
      "rus": 4298,
      "ĠBak": 4299,
      "ĠSejak": 4300,
      "Ġkak": 4301,
      "edaan": 4302,
      "iksi": 4303,
      "2004": 4304,
      "Ġkeadaan": 4305,
      "Ġjuara": 4306,
      "Ġsegera": 4307,
      "ometer": 4308,
      "ipil": 4309,
      "onghoa": 4310,
      "iliar": 4311,
      "2006": 4312,
      "evi": 4313,
      "ĠĠĠĠĠĠĠĠĠĠĠĠĠĠĠĠĠĠĠĠĠĠĠĠĠĠĠĠĠĠĠĠĠĠĠĠĠĠĠĠĠĠĠĠĠĠĠĠĠĠĠĠĠĠĠĠĠĠĠĠĠĠĠĠĠĠĠĠĠĠĠĠĠĠĠĠĠĠĠĠĠĠĠĠĠĠĠĠĠĠĠĠĠĠĠĠĠĠĠĠĠĠĠĠĠĠĠĠĠĠĠĠĠĠĠĠĠĠĠĠĠĠĠĠĠĠĠĠĠĠĠĠĠĠĠĠĠĠĠĠĠĠĠĠĠĠĠĠĠĠĠĠĠĠĠĠĠĠĠĠĠĠĠĠĠĠĠĠĠĠĠĠĠĠĠĠĠĠĠĠĠĠĠĠĠĠĠĠĠĠĠĠĠĠĠĠĠĠĠĠĠĠĠĠĠĠĠĠĠĠĠĠĠĠĠĠĠĠĠĠĠĠĠĠĠĠĠĠĠĠĠĠĠĠĠĠĠĠĠĠĠĠĠĠĠĠĠĠĠĠĠĠĠĠĠĠĠĠĠĠĠĠĠĠĠĠĠĠĠĠĠĠĠĠĠĠĠĠĠĠĠĠĠĠĠĠĠĠĠĠĠĠĠĠĠĠĠĠĠĠĠĠĠĠĠĠĠĠĠĠĠĠĠĠĠĠĠĠĠĠĠĠĠĠĠĠĠĠĠĠĠĠĠĠĠĠĠĠĠĠĠĠĠĠĠĠĠĠĠĠĠĠĠĠĠĠĠĠĠĠĠĠĠĠĠĠĠĠĠĠĠĠĠĠĠĠĠĠĠĠĠĠĠĠ": 4314,
      "MI": 4315,
      "izin": 4316,
      "Ġsebenarnya": 4317,
      "ahu": 4318,
      "ĠAnton": 4319,
      "ĠJabatan": 4320,
      "Ġmm": 4321,
      "ova": 4322,
      "ĠSwedia": 4323,
      "airan": 4324,
      "awar": 4325,
      "Ġberoperasi": 4326,
      "Ġdibintangi": 4327,
      "rit": 4328,
      "Ġperp": 4329,
      "anye": 4330,
      "500": 4331,
      "uhu": 4332,
      "urnal": 4333,
      "Ia": 4334,
      "ĠRun": 4335,
      "Ä«": 4336,
      "ĠEkonomi": 4337,
      "PA": 4338,
      "ambi": 4339,
      "ujuk": 4340,
      "Ġpukul": 4341,
      "utu": 4342,
      "EN": 4343,
      "ĠMelayu": 4344,
      "duc": 4345,
      "Ġdukungan": 4346,
      "Ġpoin": 4347,
      "osk": 4348,
      "Ġkaum": 4349,
      "ĠSug": 4350,
      "Ġ48": 4351,
      "Pro": 4352,
      "ĠNag": 4353,
      "abrik": 4354,
      "Ġkos": 4355,
      "Ġkimia": 4356,
      "Ġtulis": 4357,
      "alo": 4358,
      "Ġ1945": 4359,
      "ĠMasjid": 4360,
      "lus": 4361,
      "ividu": 4362,
      "Ġref": 4363,
      "Ġmemerint": 4364,
      "ĠPart": 4365,
      "utuhkan": 4366,
      "ambat": 4367,
      "Ġbus": 4368,
      "Ġutamanya": 4369,
      "ĠHak": 4370,
      "ĠSouth": 4371,
      "Ġtunggal": 4372,
      "ĠOne": 4373,
      "Ġcalon": 4374,
      "Ġweb": 4375,
      "ĠLeague": 4376,
      "abis": 4377,
      "ĠBang": 4378,
      "ĠSanta": 4379,
      "Ġdewasa": 4380,
      "ĠSebuah": 4381,
      "ĠKir": 4382,
      "back": 4383,
      "aren": 4384,
      "Ġac": 4385,
      "Ġkepem": 4386,
      "ĠYoung": 4387,
      "ze": 4388,
      "amkan": 4389,
      "nan": 4390,
      "ĠSant": 4391,
      "Ġumat": 4392,
      "Ġpertempuran": 4393,
      "Ġtujuh": 4394,
      "ĠBet": 4395,
      "Ġkelurahan": 4396,
      "ters": 4397,
      "Ġperdagangan": 4398,
      "ademi": 4399,
      "Ġperlu": 4400,
      "Ġteori": 4401,
      "Ġguru": 4402,
      "Ġ1981": 4403,
      "ĠReg": 4404,
      "ĠUkraina": 4405,
      "ele": 4406,
      "ĠDPRD": 4407,
      "fa": 4408,
      "Ġenergi": 4409,
      "ĠSus": 4410,
      "ĠFre": 4411,
      "ĠKrist": 4412,
      "ĠDarat": 4413,
      "Ġlembaga": 4414,
      "omi": 4415,
      "rap": 4416,
      "Ġko": 4417,
      "Ġberusaha": 4418,
      "Ġbadan": 4419,
      "Ġmenyerang": 4420,
      "ibu": 4421,
      "Ġ70": 4422,
      "Ġsemb": 4423,
      "ĠMov": 4424,
      "Ġselanjutnya": 4425,
      "ĠPress": 4426,
      "onik": 4427,
      "ĠNet": 4428,
      "Ġmetode": 4429,
      "ĠFIFA": 4430,
      "ĠKatedral": 4431,
      "ualitas": 4432,
      "Ġpengguna": 4433,
      "Ġ80": 4434,
      "elola": 4435,
      "Ġkg": 4436,
      "RA": 4437,
      "Ġkantor": 4438,
      "esti": 4439,
      "iversitas": 4440,
      "ĠLeg": 4441,
      "inggian": 4442,
      "Ġkomunitas": 4443,
      "Ã¡n": 4444,
      "ĠRock": 4445,
      "alian": 4446,
      "iku": 4447,
      "kitab": 4448,
      "stan": 4449,
      "ĠKart": 4450,
      "ĠPeter": 4451,
      "ambahkan": 4452,
      "Ġdarah": 4453,
      "ĠPembangunan": 4454,
      "Ã§": 4455,
      "Ġdesain": 4456,
      "ĠMarc": 4457,
      "isir": 4458,
      "dan": 4459,
      "Ġ1977": 4460,
      "Ġorgan": 4461,
      "Ġ46": 4462,
      "Ġselesai": 4463,
      "ÙĨ": 4464,
      "ĠArg": 4465,
      "ĠOt": 4466,
      "ĠSosial": 4467,
      "PS": 4468,
      "ĠTionghoa": 4469,
      "Ġ)": 4470,
      "Ġpertengahan": 4471,
      "ĠVir": 4472,
      "awanan": 4473,
      "embatan": 4474,
      "Ġ1979": 4475,
      "akah": 4476,
      "alih": 4477,
      "Ġ1978": 4478,
      "ahat": 4479,
      "ujud": 4480,
      "á¹": 4481,
      "ologis": 4482,
      "ĠAgr": 4483,
      "ĠCamp": 4484,
      "2022": 4485,
      "Ġialah": 4486,
      "Ġvokal": 4487,
      "ĠAy": 4488,
      "Ġmembunuh": 4489,
      "usul": 4490,
      "Ġkuno": 4491,
      "ĠJl": 4492,
      "truksi": 4493,
      "ĠLaw": 4494,
      "ĠĠĠĠĠĠĠĠĠĠĠĠĠĠĠĠĠĠĠĠĠĠĠĠĠĠĠĠĠĠĠĠĠĠĠĠĠĠĠĠĠĠĠĠĠĠĠĠĠĠĠĠĠĠĠĠĠĠĠĠĠĠ": 4495,
      "ĠHel": 4496,
      "Ġbertahan": 4497,
      "Ġbersifat": 4498,
      "bu": 4499,
      "ĠPersi": 4500,
      "Ġstudio": 4501,
      "empatan": 4502,
      "ĠKesehatan": 4503,
      "Ġpengaruh": 4504,
      "erk": 4505,
      "ĠSemarang": 4506,
      "ogo": 4507,
      "Ġcabang": 4508,
      "ĠDig": 4509,
      "Ġ----------------------": 4510,
      "iwayat": 4511,
      "ajib": 4512,
      "Ġo": 4513,
      "ĠMasa": 4514,
      "ĠBatu": 4515,
      "Ġmi": 4516,
      "Ġ42": 4517,
      "ĠNusa": 4518,
      "Ġbegitu": 4519,
      "umbuhan": 4520,
      "ĠMakassar": 4521,
      "ĠIrlandia": 4522,
      "ĠRecord": 4523,
      "so": 4524,
      "ĠAku": 4525,
      "ĠÂ°": 4526,
      "ĠYesus": 4527,
      "itch": 4528,
      "ĠKut": 4529,
      "Ġmemainkan": 4530,
      "ĠNik": 4531,
      "ĠTeam": 4532,
      "minal": 4533,
      "ĠKn": 4534,
      "ĠOlah": 4535,
      "Ġpemenang": 4536,
      "ĠWind": 4537,
      "Berikut": 4538,
      "uali": 4539,
      "ĠVideo": 4540,
      "ĠBangsa": 4541,
      "las": 4542,
      "71": 4543,
      "aliforn": 4544,
      "itudo": 4545,
      "ĠPenc": 4546,
      "Ġkhususnya": 4547,
      "Ġkonsep": 4548,
      "Ġhati": 4549,
      "Ġsifat": 4550,
      "Ġtumbuh": 4551,
      "urangi": 4552,
      "Ġnamanya": 4553,
      "ĠMir": 4554,
      "Ġjelas": 4555,
      "Ġdikembangkan": 4556,
      "rich": 4557,
      "Ġsat": 4558,
      "ontr": 4559,
      "PD": 4560,
      "ĠSeries": 4561,
      "ĠFranc": 4562,
      "ras": 4563,
      "entikan": 4564,
      "ayakan": 4565,
      "Ġstandar": 4566,
      "Ġditemui": 4567,
      "Ġkalinya": 4568,
      "angat": 4569,
      "US": 4570,
      "pek": 4571,
      "98": 4572,
      "Ġ--------------------------------------------": 4573,
      "65": 4574,
      "Ġsingel": 4575,
      "anth": 4576,
      "Ġpolitikus": 4577,
      "90": 4578,
      "ĠPembentukan": 4579,
      "empa": 4580,
      "Ġspons": 4581,
      "ĠTeknik": 4582,
      "Ġprakt": 4583,
      "esm": 4584,
      "ky": 4585,
      "Ġdipakai": 4586,
      "Ġedisi": 4587,
      "Ġperg": 4588,
      "ĠShin": 4589,
      "ersial": 4590,
      "Ġth": 4591,
      "ĠKeluar": 4592,
      "72": 4593,
      "ĠVan": 4594,
      "ski": 4595,
      "Ġmembuka": 4596,
      "ĠWali": 4597,
      "aro": 4598,
      "ĠHid": 4599,
      "Ġ1976": 4600,
      "baru": 4601,
      "Ġex": 4602,
      "ĠKos": 4603,
      "Ġdipilih": 4604,
      "epak": 4605,
      "pro": 4606,
      "ambut": 4607,
      "Ġkategori": 4608,
      "ren": 4609,
      "ĠMax": 4610,
      "ID": 4611,
      "ĠFW": 4612,
      "73": 4613,
      "ĠRas": 4614,
      "Ġpenumpang": 4615,
      "line": 4616,
      "Ġcamp": 4617,
      "ĠĊ": 4618,
      "62": 4619,
      "lad": 4620,
      "zo": 4621,
      "atorium": 4622,
      "Ġmiliar": 4623,
      "yar": 4624,
      "eksiko": 4625,
      "Ġaliran": 4626,
      "Ġneg": 4627,
      "alifornia": 4628,
      "Ġmempertahankan": 4629,
      "elompok": 4630,
      "ĠBerb": 4631,
      "ĠIran": 4632,
      "100": 4633,
      "Î±": 4634,
      "Ġlahan": 4635,
      "ãĥ³": 4636,
      "ĠMedan": 4637,
      "ikal": 4638,
      "Ġhujan": 4639,
      "Ġmenyediakan": 4640,
      "BB": 4641,
      "ĠPerusahaan": 4642,
      "ĠFri": 4643,
      "ĠSMP": 4644,
      "impan": 4645,
      "ĠNar": 4646,
      "ĠPictur": 4647,
      "Ġtur": 4648,
      "ekor": 4649,
      "Ġkeputusan": 4650,
      "Ġdibuka": 4651,
      "Ġsens": 4652,
      "Ġdiny": 4653,
      "Ġ44": 4654,
      "ĠMand": 4655,
      "Ġkorban": 4656,
      "Ġplat": 4657,
      "aju": 4658,
      "Pen": 4659,
      "Ġbergerak": 4660,
      "ikiran": 4661,
      "ĠWaktu": 4662,
      "Ġhuruf": 4663,
      "edakan": 4664,
      "ĠSec": 4665,
      "ĠOlahraga": 4666,
      "acing": 4667,
      "Ġ---------------------": 4668,
      "Ġobjek": 4669,
      "ĠBus": 4670,
      "2000": 4671,
      "ĠInter": 4672,
      "Å¡": 4673,
      "ËĪ": 4674,
      "Ġperc": 4675,
      "isahkan": 4676,
      "entina": 4677,
      "ĠAmerican": 4678,
      "ision": 4679,
      "ull": 4680,
      "Ġterlalu": 4681,
      "skup": 4682,
      "aksud": 4683,
      "oice": 4684,
      "ĠPlay": 4685,
      "oka": 4686,
      "Ġgunung": 4687,
      "ĠPand": 4688,
      "kh": 4689,
      "ĠPerjanjian": 4690,
      "irasi": 4691,
      "obatan": 4692,
      "Ġadat": 4693,
      "operasikan": 4694,
      "ĠSand": 4695,
      "etika": 4696,
      "erto": 4697,
      "ates": 4698,
      "Ġukuran": 4699,
      "ES": 4700,
      "ĠSah": 4701,
      "we": 4702,
      "engar": 4703,
      "ĠMartin": 4704,
      "Ġsutradara": 4705,
      "ĠVictor": 4706,
      "Ġ--------------------------": 4707,
      "ĠFin": 4708,
      "ĠPemerintahan": 4709,
      "irik": 4710,
      "Ġbunga": 4711,
      "Ġdiselenggarakan": 4712,
      "ĠKampung": 4713,
      "Ġseder": 4714,
      "ajukan": 4715,
      "61": 4716,
      "ĠMr": 4717,
      "iner": 4718,
      "Ùİ": 4719,
      "ĠHindia": 4720,
      "ĠGi": 4721,
      "Ġalasan": 4722,
      "Ġmengandung": 4723,
      "74": 4724,
      "ĠDenmark": 4725,
      "Ġunsur": 4726,
      "ormatan": 4727,
      "hari": 4728,
      "angit": 4729,
      "ĠWill": 4730,
      "ĠĠĠĠĠĠĠĠĠĠĠĠĠĠĠĠĠĠĠĠĠĠĠĠĠĠĠĠĠĠĠĠĠĠĠĠĠĠĠĠĠĠĠĠĠĠĠĠĠĠĠĠĠĠĠĠĠĠĠĠĠĠĠĠĠĠĠĠĠĠĠĠĠĠĠĠĠĠĠĠĠĠĠĠĠĠĠĠĠĠĠĠĠĠĠĠĠĠĠĠĠĠĠĠĠĠĠĠĠĠĠĠĠĠĠĠĠĠĠĠĠĠĠĠĠĠĠĠĠĠĠĠĠĠĠĠĠĠĠĠĠĠĠĠĠĠĠĠĠĠĠĠĠĠĠĠĠĠĠĠĠĠĠĠĠĠĠĠĠĠĠĠĠĠĠĠĠĠĠĠĠĠĠĠĠĠĠĠĠĠĠĠĠĠĠĠĠĠĠĠĠĠĠĠĠĠĠĠĠĠĠĠĠĠĠĠĠĠĠĠĠĠĠĠĠĠĠĠĠĠĠĠĠĠĠĠĠĠĠĠĠĠĠĠĠĠĠĠĠĠĠĠĠĠĠĠĠĠĠĠĠĠĠĠĠĠĠĠĠĠĠĠĠĠĠĠĠĠĠĠĠĠĠĠĠĠĠĠĠĠĠĠĠĠĠĠĠĠĠĠĠĠĠĠĠĠĠĠĠĠĠĠĠĠĠĠĠĠĠĠĠĠĠĠĠĠĠĠĠĠĠĠĠĠĠĠĠĠĠĠĠĠĠĠĠĠĠĠĠĠĠĠĠĠĠĠĠĠĠĠĠĠĠĠĠĠĠĠĠĠĠĠĠĠĠĠĠĠĠĠĠĠĠĠĠĠĠĠĠĠĠĠĠĠĠĠĠĠĠĠĠĠĠĠĠĠĠĠĠĠĠĠĠĠĠĠĠĠĠĠĠĠĠĠĠĠĠĠĠĠĠĠĠĠĠĠĠĠĠĠĠĠĠĠĠĠĠĠĠĠĠĠĠĠĠĠĠĠĠĠĠĠĠĠĠĠĠĠĠĠĠĠĠĠĠĠĠĠĠĠĠĠĠĠĠĠĠĠĠĠĠĠĠĠĠĠĠĠĠĠĠĠĠĠĠĠĠĠĠĠĠĠĠĠĠĠĠĠĠĠĠĠĠĠĠĠĠĠĠĠĠĠĠĠĠĠĠĠĠĠĠĠĠĠĠĠĠĠĠĠĠĠĠĠĠĠĠĠĠĠĠĠĠĠĠĠĠĠĠĠĠĠĠĠĠĠĠĠĠĠĠĠĠĠĠĠĠĠĠĠĠĠĠĠĠĠĠĠĠĠĠĠĠĠĠĠĠĠĠĠĠĠĠĠĠĠĠĠĠĠĠĠĠĠĠĠĠĠĠĠĠĠĠĠĠĠĠĠĠĠĠĠĠĠĠĠĠĠĠĠĠĠĠĠĠĠĠĠĠĠĠĠĠĠĠĠĠĠĠĠĠĠĠĠĠĠĠĠĠĠĠĠĠĠĠĠĠĠĠĠĠĠĠĠĠĠĠĠĠĠĠĠĠĠĠĠĠĠĠĠĠĠĠĠĠĠĠĠĠĠĠĠĠĠĠĠĠĠĠĠĠĠĠĠĠĠĠĠĠĠĠĠĠĠĠĠĠĠĠĠĠĠĠĠĠĠĠĠĠĠĠĠĠĠĠĠĠĠĠĠĠĠĠĠĠĠĠĠĠĠĠĠĠĠĠĠĠĠĠĠĠĠĠĠĠĠĠĠĠĠĠĠĠĠĠĠĠĠĠĠĠĠĠĠĠĠĠĠĠĠĠĠĠĠĠĠĠĠĠĠĠĠĠĠĠĠĠĠĠĠĠĠĠĠĠĠĠĠĠĠĠĠĠĠĠĠĠĠĠĠĠĠĠĠĠĠĠĠĠĠĠĠĠĠĠĠĠĠĠĠĠĠĠĠĠĠĠĠĠĠĠĠĠĠĠĠĠĠĠĠĠĠĠĠĠĠĠĠĠĠĠĠĠĠĠĠĠĠĠĠĠĠĠĠĠĠĠĠĠĠĠĠĠĠĠĠĠĠĠĠĠĠĠĠĠĠĠĠĠĠĠĠĠĠĠĠĠĠĠĠĠĠĠĠĠĠĠĠĠĠĠĠĠĠĠĠĠĠĠĠĠĠĠĠĠĠĠĠĠĠĠĠĠĠĠĠĠĠĠĠĠĠĠĠĠĠĠĠĠĠĠĠĠĠĠĠĠĠĠĠĠĠĠĠĠĠĠĠĠĠĠĠĠĠĠĠĠĠĠĠĠĠĠĠĠĠĠĠĠĠĠĠĠĠĠĠĠĠĠĠĠĠĠĠĠĠĠĠĠĠĠĠĠĠĠĠĠĠĠĠĠĠĠĠĠĠĠĠĠĠĠĠĠĠĠĠĠĠĠĠĠĠĠĠĠĠĠĠĠĠĠĠĠĠĠĠĠĠĠĠĠĠĠĠĠĠĠĠĠĠĠĠĠĠĠĠĠĠĠĠĠĠĠĠĠĠĠĠĠĠĠĠĠĠĠĠĠĠĠĠĠĠĠĠĠĠĠĠĠĠĠĠĠĠĠĠĠĠĠĠĠĠĠĠĠĠĠĠĠĠĠĠĠĠĠĠĠĠĠĠĠĠĠĠĠĠĠĠĠĠĠĠĠĠĠĠĠĠĠĠĠĠĠĠĠĠĠĠĠĠĠĠĠĠĠĠĠĠĠĠĠĠĠĠĠĠĠĠĠĠĠĠĠĠĠĠĠĠĠĠĠĠĠĠĠĠĠĠĠĠĠĠĠĠĠĠĠĠĠĠĠĠĠĠĠĠĠĠĠĠĠĠĠĠĠĠĠĠĠĠĠĠĠĠĠĠĠĠĠĠĠĠĠĠĠĠĠĠĠĠĠĠĠĠĠĠĠĠĠĠĠĠĠĠĠĠĠĠĠĠĠĠĠĠĠĠĠĠĠĠĠĠĠĠĠĠĠĠĠĠĠĠĠĠĠĠĠĠĠĠĠĠĠĠĠĠĠĠĠĠĠĠĠĠĠĠĠĠĠĠĠĠĠĠĠĠĠĠĠĠĠĠĠĠĠĠĠĠĠĠĠĠĠĠĠĠĠĠĠĠĠĠĠĠĠĠĠĠĠĠĠĠĠĠĠĠĠĠĠĠĠĠĠĠĠĠĠĠĠĠĠĠĠĠĠĠĠĠĠĠĠĠĠĠĠĠĠĠĠĠĠĠĠĠĠĠĠĠĠĠĠĠĠĠĠĠĠĠĠĠĠĠĠĠĠĠĠĠĠĠĠĠĠĠĠĠĠĠĠĠĠĠĠĠĠĠĠĠĠĠĠĠĠĠĠĠĠĠĠĠĠĠĠĠĠĠĠĠĠĠĠĠĠĠĠĠĠĠĠĠĠĠĠĠĠĠĠĠĠĠĠĠĠĠĠĠĠĠĠĠĠĠĠĠĠĠĠĠĠĠĠĠĠĠĠĠĠĠĠĠĠĠĠĠĠĠĠĠĠĠĠĠĠĠĠĠĠĠĠĠĠĠĠĠĠĠĠĠĠĠĠĠĠĠĠĠĠĠĠĠĠĠĠĠĠĠĠĠĠĠĠĠĠĠĠĠĠĠĠĠĠĠĠĠĠĠĠĠĠĠĠĠĠĠĠĠĠĠĠĠĠĠĠĠĠĠĠĠĠĠĠĠĠĠĠĠĠĠĠĠĠĠĠĠĠĠĠĠĠĠĠĠĠĠĠĠĠĠĠĠĠĠĠĠĠĠĠĠĠĠĠĠĠĠĠĠĠĠĠĠĠĠĠĠĠĠĠĠĠĠĠĠĠĠĠĠĠĠĠĠĠĠĠĠĠĠĠĠĠĠĠĠĠĠĠĠĠĠĠĠĠĠĠĠĠĠĠĠĠĠĠĠĠĠĠĠĠĠĠĠĠĠĠĠĠĠĠĠĠĠĠĠĠĠĠĠĠĠĠĠĠĠĠĠĠĠĠĠĠĠĠĠĠĠĠĠĠĠĠĠĠĠĠĠĠĠĠĠĠĠĠĠĠĠĠĠĠĠĠĠĠĠĠĠĠĠĠĠĠĠĠĠĠĠĠĠĠĠĠĠĠĠĠĠĠĠĠĠĠĠĠĠĠĠĠĠĠĠĠĠĠĠĠĠĠĠĠĠĠĠĠĠĠĠĠĠĠĠĠĠĠĠĠĠĠĠĠĠĠĠĠĠĠĠĠĠĠĠĠĠĠĠĠĠĠĠĠĠĠĠĠĠĠĠĠĠĠĠĠĠĠĠĠĠĠĠĠĠĠĠĠĠĠĠĠĠĠĠĠĠĠĠĠĠĠĠĠĠĠĠĠĠĠĠĠĠĠĠĠĠĠĠĠĠĠĠĠĠĠĠĠĠĠĠĠĠĠĠĠĠĠĠĠĠĠĠĠĠĠĠĠĠĠĠĠĠĠĠĠĠĠĠĠĠĠĠĠĠĠĠĠĠĠĠĠĠĠĠĠĠĠĠĠĠĠĠĠĠĠĠĠĠĠĠĠĠĠĠĠĠĠĠĠĠĠĠĠĠĠĠĠĠĠĠĠĠĠĠĠĠĠĠĠĠĠĠĠĠĠĠĠĠĠĠĠĠĠĠĠĠĠĠĠĠĠĠĠĠĠĠĠĠĠĠĠĠĠĠĠĠĠĠĠĠĠĠĠĠĠĠĠĠĠĠĠĠĠĠĠĠĠĠĠĠĠĠĠĠĠĠĠĠĠĠĠĠĠĠĠĠĠĠĠĠĠĠĠĠĠĠĠĠĠĠĠĠĠĠĠĠĠĠĠĠĠĠĠĠĠĠĠĠĠĠĠĠĠĠĠĠĠĠĠĠĠĠĠĠĠĠĠĠĠĠĠĠĠĠĠĠĠĠĠĠĠĠĠĠĠĠĠĠĠĠĠĠĠĠĠĠĠĠĠĠĠĠĠĠĠĠĠĠĠĠĠĠĠĠĠĠĠĠĠĠĠĠĠĠĠĠĠĠĠĠĠĠĠĠĠĠĠĠĠĠĠĠĠĠĠĠĠĠĠĠĠĠĠĠĠĠĠĠĠĠĠĠĠĠĠĠĠĠĠĠĠĠĠĠĠĠĠĠĠĠĠĠĠĠĠĠĠĠĠĠĠĠĠĠĠĠĠĠĠĠĠĠĠĠĠĠĠĠĠĠĠĠĠĠĠĠĠĠĠĠĠĠĠĠĠĠĠĠĠĠĠĠĠĠĠĠĠĠĠĠĠĠĠĠĠĠĠĠĠĠĠĠĠĠĠĠĠĠĠĠĠĠĠĠĠĠĠĠĠĠĠĠĠĠĠĠĠĠĠĠĠĠĠĠĠĠĠĠĠĠĠĠĠĠĠĠĠĠĠĠĠĠĠĠĠĠĠĠĠĠĠĠĠĠĠĠĠĠĠĠĠĠĠĠĠĠĠĠĠĠĠĠĠĠĠĠĠĠĠĠĠĠĠĠĠĠĠĠĠĠĠĠĠĠĠĠĠĠĠĠĠĠĠĠĠĠĠĠĠĠĠĠĠĠĠĠĠĠĠĠĠĠĠĠĠĠĠĠĠĠĠĠĠĠĠĠĠĠĠĠĠĠĠĠĠĠĠĠĠĠĠĠĠĠĠĠĠĠĠĠĠĠĠĠĠĠĠĠĠĠĠĠĠĠĠĠĠĠĠĠĠĠĠĠĠĠĠĠĠĠĠĠĠĠĠĠĠĠĠĠĠĠĠĠĠĠĠĠĠĠĠĠĠĠĠĠĠĠĠĠĠĠĠĠĠĠĠĠĠĠĠĠĠĠĠĠĠĠĠĠĠĠĠĠĠĠĠĠĠĠĠĠĠĠĠĠĠĠĠĠĠĠĠĠĠĠĠĠĠĠĠĠĠĠĠĠĠĠĠĠĠĠĠĠĠĠĠĠĠĠĠĠĠĠĠĠĠĠĠĠĠĠĠĠĠĠĠĠĠĠĠĠĠĠĠĠĠĠĠĠĠĠĠĠĠĠĠĠĠĠĠĠĠĠĠĠĠĠĠĠĠĠĠĠĠĠĠĠĠĠĠĠĠĠĠĠĠĠĠĠĠĠĠĠĠĠĠĠĠĠĠĠĠĠĠĠĠĠĠĠĠĠĠĠĠĠĠĠĠĠĠĠĠĠĠĠĠĠĠĠĠĠĠĠĠĠĠĠĠĠĠĠĠĠĠĠĠĠĠĠĠĠĠĠĠĠĠĠĠĠĠĠĠĠĠĠĠĠĠĠĠĠĠĠĠĠĠĠĠĠĠĠĠĠĠĠĠĠĠĠĠĠĠĠĠĠĠĠĠĠĠĠĠĠĠĠĠĠĠĠĠĠĠĠĠĠĠĠĠĠĠĠĠĠĠĠĠĠĠĠĠĠĠĠĠĠĠĠĠĠĠĠĠĠĠĠĠĠĠĠĠĠĠĠĠĠĠĠĠĠĠĠĠĠĠĠĠĠĠĠĠĠĠĠĠĠĠĠĠĠĠĠĠĠĠĠĠĠĠĠĠĠĠĠĠĠĠĠĠĠĠĠĠĠĠĠĠĠĠĠĠĠĠĠĠĠĠĠĠĠĠĠĠĠĠĠĠĠĠĠĠĠĠĠĠĠĠĠĠĠĠĠĠĠĠĠĠĠĠĠĠĠĠĠĠĠĠĠĠĠĠĠĠĠĠĠĠĠĠĠĠĠĠĠĠĠĠĠĠĠĠĠĠĠĠĠĠĠĠĠĠĠĠĠĠĠĠĠĠĠĠĠĠĠĠĠĠĠĠĠĠĠĠĠĠĠĠĠĠĠĠĠĠĠĠĠĠĠĠĠĠĠĠĠĠĠĠĠĠĠĠĠĠĠĠĠĠĠĠĠĠĠĠĠĠĠĠĠĠĠĠĠĠĠĠĠĠĠĠĠĠĠĠĠĠĠĠĠĠĠĠĠĠĠĠĠĠĠĠĠĠĠĠĠĠĠĠĠĠĠĠĠĠĠĠĠĠĠĠĠĠĠĠĠĠĠĠĠĠĠĠĠĠĠĠĠĠĠĠĠĠĠĠĠĠĠĠĠĠĠĠĠĠĠĠĠĠĠĠĠĠĠĠĠĠĠĠĠĠĠĠĠĠĠĠĠĠĠĠĠĠĠĠĠĠĠĠĠĠĠĠĠĠĠĠĠĠĠĠĠĠĠĠĠĠĠĠĠĠĠĠĠĠĠĠĠĠĠĠĠĠĠĠĠĠĠĠĠĠĠĠĠĠĠĠĠĠĠĠĠĠĠĠĠĠĠĠĠĠĠĠĠĠĠĠĠĠĠĠĠĠĠĠĠĠĠĠĠĠĠĠĠĠĠĠĠĠĠĠĠĠĠĠĠĠĠĠĠĠĠĠĠĠĠĠĠĠĠĠĠĠĠĠĠĠĠĠĠĠĠĠĠĠĠĠĠĠĠĠĠĠĠĠĠĠĠĠĠĠĠĠĠĠĠĠĠĠĠĠĠĠĠĠĠĠĠĠĠĠĠĠĠĠĠĠĠĠĠĠĠĠĠĠĠĠĠĠĠĠĠĠĠĠĠĠĠĠĠĠĠĠĠĠĠĠĠĠĠĠĠĠĠĠĠĠĠĠĠĠĠĠĠĠĠĠĠĠĠĠĠĠĠĠĠĠĠĠĠĠĠĠĠĠĠĠĠĠĠĠĠĠĠĠĠĠĠĠĠĠĠĠĠĠĠĠĠĠĠĠĠĠĠĠĠĠĠĠĠĠĠĠĠĠĠĠĠĠĠĠĠĠĠĠĠĠĠĠĠĠĠĠĠĠĠĠĠĠĠĠĠĠĠĠĠĠĠĠĠĠĠĠĠĠĠĠĠĠĠĠĠĠĠĠĠĠĠĠĠĠĠĠĠĠĠĠĠĠĠĠĠĠĠĠĠĠĠĠĠĠĠĠĠĠĠĠĠĠĠĠĠĠĠĠĠĠĠĠĠĠĠĠĠĠĠĠĠĠĠĠĠĠĠĠĠĠĠĠĠĠĠĠĠĠĠĠĠĠĠĠĠĠĠĠĠĠĠĠĠĠĠĠĠĠĠĠĠĠĠĠĠĠĠĠĠĠĠĠĠĠĠĠĠĠĠĠĠĠĠĠĠĠĠĠĠĠĠĠĠĠĠĠĠĠĠĠĠĠĠĠĠĠĠĠĠĠĠĠĠĠĠĠĠĠĠĠĠĠĠĠĠĠĠĠĠĠĠĠĠĠĠĠĠĠĠĠĠĠĠĠĠĠĠĠĠĠĠĠĠĠĠĠĠĠĠĠĠĠĠĠĠĠĠĠĠĠĠĠĠĠĠĠĠĠĠĠĠĠĠĠĠĠĠĠĠĠĠĠĠĠĠĠĠĠĠĠĠĠĠĠĠĠĠĠĠĠĠĠĠĠĠĠĠĠĠĠĠĠĠĠĠĠĠĠĠĠĠĠĠĠĠĠĠĠĠĠĠĠĠĠĠĠĠĠĠĠĠĠĠĠĠĠĠĠĠĠĠĠĠĠĠĠĠĠĠĠĠĠĠĠĠĠĠĠĠĠĠĠĠĠĠĠĠĠĠĠĠĠĠĠĠĠĠĠĠĠĠĠĠĠĠĠĠĠĠĠĠĠĠĠĠĠĠĠĠĠĠĠĠĠĠĠĠĠĠĠĠĠĠĠĠĠĠĠĠĠĠĠĠĠĠĠĠĠĠĠĠĠĠĠĠĠĠĠĠĠĠĠĠĠĠĠĠĠĠĠĠĠĠĠĠĠĠĠĠĠĠĠĠĠĠĠĠĠĠĠĠĠĠĠĠĠĠĠĠĠĠĠĠĠĠĠĠĠĠĠĠĠĠĠĠĠĠĠĠĠĠĠĠĠĠĠĠĠĠĠĠĠĠĠĠĠĠĠĠĠĠĠĠĠĠĠĠĠĠĠĠĠĠĠĠĠĠĠĠĠĠĠĠĠĠĠĠĠĠĠĠĠĠĠĠĠĠ": 4731,
      "ependen": 4732,
      "ilus": 4733,
      "ĠTri": 4734,
      "Ġ41": 4735,
      "ĠProt": 4736,
      "Ġjudul": 4737,
      "ĠBon": 4738,
      "ipp": 4739,
      "Ġfrom": 4740,
      "ĠAnn": 4741,
      "seb": 4742,
      "ĠChe": 4743,
      "Ġpembalap": 4744,
      "ĠGun": 4745,
      "Ġmutl": 4746,
      "ae": 4747,
      "alin": 4748,
      "Ã±": 4749,
      "ĠPolitik": 4750,
      "Ġdaun": 4751,
      "Ġbatas": 4752,
      "ancurkan": 4753,
      "atasi": 4754,
      "Ġfisik": 4755,
      "Ġsik": 4756,
      "att": 4757,
      "ugu": 4758,
      "Ġgedung": 4759,
      "indahkan": 4760,
      "adah": 4761,
      "Ġ×": 4762,
      "ĠMain": 4763,
      "elly": 4764,
      "kol": 4765,
      "lie": 4766,
      "ĠEst": 4767,
      "intah": 4768,
      "ĠAbu": 4769,
      "Ġturun": 4770,
      "ĠSis": 4771,
      "jen": 4772,
      "Ġsiap": 4773,
      "iano": 4774,
      "Ġrem": 4775,
      "ĠCalifornia": 4776,
      "gar": 4777,
      "Ã³n": 4778,
      "ukai": 4779,
      "Ġkomputer": 4780,
      "Ġditetapkan": 4781,
      "weg": 4782,
      "ĠGel": 4783,
      "Ġkendaraan": 4784,
      "Ġkepad": 4785,
      "unjung": 4786,
      "ĠKek": 4787,
      "2003": 4788,
      "Ġbiaya": 4789,
      "Ġminggu": 4790,
      "ream": 4791,
      "gu": 4792,
      "Ġnaik": 4793,
      "ations": 4794,
      "ĠMaluku": 4795,
      "ĠJi": 4796,
      "Ġ49": 4797,
      "ao": 4798,
      "Ġaktivitas": 4799,
      "oshi": 4800,
      "Ġwakil": 4801,
      "Ġproduser": 4802,
      "Ġok": 4803,
      "Ġ1973": 4804,
      "for": 4805,
      "ĠArm": 4806,
      "ĠAcademy": 4807,
      "Ġkritik": 4808,
      "Ġnaskah": 4809,
      "Ġes": 4810,
      "ĠKaz": 4811,
      "Ġtanda": 4812,
      "ugerah": 4813,
      "anji": 4814,
      "urusan": 4815,
      "ĠCompany": 4816,
      "ĠMun": 4817,
      "Ġgas": 4818,
      "Ġasam": 4819,
      "FC": 4820,
      "ferensi": 4821,
      "Ġsaham": 4822,
      "Ġminyak": 4823,
      "ilu": 4824,
      "Ġpernikahan": 4825,
      "ĠDhar": 4826,
      "ĠKod": 4827,
      "amatkan": 4828,
      "Ġlulus": 4829,
      "ĠSwiss": 4830,
      "uch": 4831,
      "Ġarea": 4832,
      "ĠJika": 4833,
      "onel": 4834,
      "Ġ1974": 4835,
      "engkap": 4836,
      "ĠSistem": 4837,
      "ĠâĢ¢": 4838,
      "emahan": 4839,
      "egan": 4840,
      "ĠBrig": 4841,
      "ipati": 4842,
      "Ġkecepatan": 4843,
      "Ġmengetahui": 4844,
      ")\"": 4845,
      "ĠBor": 4846,
      "ganya": 4847,
      "Th": 4848,
      "ĠHir": 4849,
      "atangani": 4850,
      "Ġfasilitas": 4851,
      "Ġmencetak": 4852,
      "Ġrencana": 4853,
      "Menurut": 4854,
      "ĠMary": 4855,
      "ĠCal": 4856,
      "utar": 4857,
      "Ġtahu": 4858,
      "ĠPop": 4859,
      "ĠDrs": 4860,
      "win": 4861,
      "ĠCD": 4862,
      "den": 4863,
      "Ġ1975": 4864,
      "ĠBerd": 4865,
      "ever": 4866,
      "alisis": 4867,
      "Ġá": 4868,
      "ĠDewi": 4869,
      "ĠDaniel": 4870,
      "ĠJean": 4871,
      "``": 4872,
      "ĠPerk": 4873,
      "alib": 4874,
      "ĠGor": 4875,
      "ĠMeksiko": 4876,
      "Ġkehilangan": 4877,
      "ĠAndr": 4878,
      "otel": 4879,
      "ebasan": 4880,
      "ĠNight": 4881,
      "ĠĠĠĠĠĠĠĠĠĠĠĠĠĠĠĠĠĠĠĠĠĠĠĠĠĠĠĠĠĠĠĠĠĠĠĠĠĠĠĠĠĠĠĠĠĠĠĠĠĠĠĠĠĠĠĠĠĠĠĠĠĠĠĠĠ": 4882,
      "umpulan": 4883,
      "ĠBerk": 4884,
      "Ġmagnitudo": 4885,
      "Ġmisalnya": 4886,
      "2023": 4887,
      "ĠSeni": 4888,
      "ĠRaj": 4889,
      "okter": 4890,
      "Ġ1971": 4891,
      "Ġide": 4892,
      "ĠPDI": 4893,
      "ataran": 4894,
      "reg": 4895,
      "Ġtemb": 4896,
      "ĠStev": 4897,
      "ilia": 4898,
      "Ġteknik": 4899,
      "Ġmenang": 4900,
      "Ġmemenuhi": 4901,
      "tifikasi": 4902,
      "Ġpendukung": 4903,
      "Ġsw": 4904,
      "alau": 4905,
      "ĠDinasti": 4906,
      "Ġ43": 4907,
      "Ġ-------------------------": 4908,
      "Ġvir": 4909,
      "63": 4910,
      "aging": 4911,
      "ĠAlam": 4912,
      "olf": 4913,
      "eon": 4914,
      "dam": 4915,
      "Ġseks": 4916,
      "ĠOut": 4917,
      "Ġberc": 4918,
      "jah": 4919,
      "tis": 4920,
      "Ġterbatas": 4921,
      "Ġketinggian": 4922,
      "Ġpecahan": 4923,
      "Ġtayang": 4924,
      "ebutuhan": 4925,
      "asitas": 4926,
      "ĠBern": 4927,
      "ebon": 4928,
      "laim": 4929,
      "Ġtep": 4930,
      "ripsi": 4931,
      "ercaya": 4932,
      "uv": 4933,
      "ĠPin": 4934,
      "ĠKualifikasi": 4935,
      "ophy": 4936,
      "angkah": 4937,
      "ĠDid": 4938,
      "iy": 4939,
      "Ġkompleks": 4940,
      "tahun": 4941,
      "Ġdimiliki": 4942,
      "atis": 4943,
      "ĠLos": 4944,
      "ĠDana": 4945,
      "Ġselain": 4946,
      "Ġkilometer": 4947,
      "ĠEli": 4948,
      "ewas": 4949,
      "ĠLuc": 4950,
      "ajari": 4951,
      "wira": 4952,
      "ĠSuci": 4953,
      "Ġera": 4954,
      "ows": 4955,
      "Ġaktris": 4956,
      "ĠChina": 4957,
      "ĠRiau": 4958,
      "Ñģ": 4959,
      "tik": 4960,
      "Ġrekaman": 4961,
      "rani": 4962,
      "put": 4963,
      "Ġindividu": 4964,
      "ĠTeluk": 4965,
      "Ġris": 4966,
      "Ġ1972": 4967,
      "Î¿": 4968,
      "jan": 4969,
      "uasai": 4970,
      "erial": 4971,
      "ĠBuddha": 4972,
      "Ġdiikuti": 4973,
      "ĠUskup": 4974,
      "Ġkand": 4975,
      "ĠOrganisasi": 4976,
      "Ġdibagi": 4977,
      "Ġspesi": 4978,
      "ĠHati": 4979,
      "ĠFilmografi": 4980,
      "Ġmay": 4981,
      "ĠLin": 4982,
      "Ġmenjelaskan": 4983,
      "angsaan": 4984,
      "ĠPertempuran": 4985,
      "ĠMich": 4986,
      "Ġ-----------------------": 4987,
      "Ġkontrak": 4988,
      "enia": 4989,
      "Ġsaluran": 4990,
      "itor": 4991,
      "Ġkampung": 4992,
      "ĠLeb": 4993,
      "etan": 4994,
      "pat": 4995,
      "onen": 4996,
      "eski": 4997,
      "Ġtop": 4998,
      "As": 4999,
      "egah": 5000,
      "ĠKid": 5001,
      "flik": 5002,
      "ijaya": 5003,
      "Ġditerima": 5004,
      "ujian": 5005,
      "Ġantar": 5006,
      "Ġpemberont": 5007,
      "bul": 5008,
      "erson": 5009,
      "ĠHungaria": 5010,
      "UN": 5011,
      "Ġpeningkatan": 5012,
      "ega": 5013,
      "Ġ1966": 5014,
      "Ġmemasuki": 5015,
      "indungi": 5016,
      "ĠKomisi": 5017,
      "ĠCur": 5018,
      "ĠSuku": 5019,
      "Ġ55": 5020,
      "'t": 5021,
      "kin": 5022,
      "ĠLife": 5023,
      "ingatan": 5024,
      "eam": 5025,
      "asifik": 5026,
      "ts": 5027,
      "onda": 5028,
      "1999": 5029,
      "orit": 5030,
      "ĠWid": 5031,
      "2002": 5032,
      "ting": 5033,
      "abila": 5034,
      "imbol": 5035,
      "Ġperjanjian": 5036,
      "yawa": 5037,
      "Ġimp": 5038,
      "Ġdelapan": 5039,
      "ĠDepartemen": 5040,
      "ĠHenry": 5041,
      "Ġmajalah": 5042,
      "KB": 5043,
      "ormal": 5044,
      "ĠKarang": 5045,
      "ĠYus": 5046,
      "ŃĲ": 5047,
      "adu": 5048,
      "Ġberpend": 5049,
      "2001": 5050,
      "uto": 5051,
      "Ġmahasiswa": 5052,
      "ĠAdam": 5053,
      "Ġpembuatan": 5054,
      "ĠMachine": 5055,
      "Ġberbatasan": 5056,
      "ĠBogor": 5057,
      "Ġkemerdekaan": 5058,
      "ĠPurw": 5059,
      "å¤": 5060,
      "oci": 5061,
      "Pem": 5062,
      "Ġstrat": 5063,
      "IS": 5064,
      "Ġ500": 5065,
      "Ġsiswa": 5066,
      "inet": 5067,
      "Ġbenda": 5068,
      "ĠWah": 5069,
      "Ġ1965": 5070,
      "ĠAug": 5071,
      "ĠØ§": 5072,
      "ĠSecara": 5073,
      "ultanan": 5074,
      "Ġtenaga": 5075,
      "Ġmemakan": 5076,
      "ĠBir": 5077,
      "Ġdijadikan": 5078,
      "Ġsederhana": 5079,
      "hal": 5080,
      "ĠTeknologi": 5081,
      "okan": 5082,
      "olongan": 5083,
      "ĠMerah": 5084,
      "ĠWin": 5085,
      "lima": 5086,
      "ĠMalang": 5087,
      "ĠHall": 5088,
      "unjungi": 5089,
      "apak": 5090,
      "ichi": 5091,
      "portasi": 5092,
      "adiah": 5093,
      "Ġdiak": 5094,
      "ĠFlor": 5095,
      "Ġ1968": 5096,
      "Ġibunya": 5097,
      "Ġsukses": 5098,
      "Ġsingle": 5099,
      "Ġdigantikan": 5100,
      "otr": 5101,
      "ikasikan": 5102,
      "Ġupacara": 5103,
      "ats": 5104,
      "ĠSekretaris": 5105,
      "Ġfl": 5106,
      "akuan": 5107,
      "Ġberpartisipasi": 5108,
      "ĠSamp": 5109,
      "ĠAran": 5110,
      "arif": 5111,
      "ĠBut": 5112,
      "Ġsus": 5113,
      "Ġnominasi": 5114,
      "Ġny": 5115,
      "Ġmenghadapi": 5116,
      "ĠTal": 5117,
      "ĠGab": 5118,
      "ariasi": 5119,
      "rie": 5120,
      "ĠVI": 5121,
      "Ġmedali": 5122,
      "Ġpuluh": 5123,
      "Ġpercaya": 5124,
      "Ġdisi": 5125,
      "Or": 5126,
      "Ġkot": 5127,
      "unyi": 5128,
      "Ġkanan": 5129,
      "ĠBanten": 5130,
      "ĠKelas": 5131,
      "irian": 5132,
      "Ġ1969": 5133,
      "Ġmenganggap": 5134,
      "bal": 5135,
      "Ġterbang": 5136,
      "Ġtamu": 5137,
      "Ġgenerasi": 5138,
      "ĠKeluarga": 5139,
      "Ã£": 5140,
      "ĠPed": 5141,
      "juangan": 5142,
      "mu": 5143,
      "ĠJin": 5144,
      "Ġdiumumkan": 5145,
      "Mus": 5146,
      "Ġcatatan": 5147,
      "ĠĠĠĠĠĠĠĠĠĠĠĠĠĠĠĠĠĠĠĠĠĠĠĠĠĠĠĠĠĠĠĠĠĠĠĠĠĠĠĠĠĠĠĠĠĠĠĠĠĠĠĠĠĠĠĠĠĠĠĠĠĠĠĠĠĠĠĠĠĠĠĠĠĠĠĠĠĠĠĠĠĠĠĠĠĠĠĠĠĠĠĠĠĠĠĠĠĠĠĠĠĠĠĠĠĠĠĠĠĠĠĠĠĠĠĠĠĠĠĠĠĠĠĠĠĠĠĠĠĠĠĠĠĠĠĠĠĠĠĠĠĠĠĠĠĠĠĠĠĠĠĠĠĠĠĠĠĠĠĠĠĠĠĠĠĠĠĠĠĠĠĠĠĠĠĠĠĠĠĠĠĠĠĠĠĠĠĠĠĠĠĠĠĠĠĠĠĠĠĠĠĠĠĠĠĠĠĠĠĠĠĠĠĠĠĠĠĠĠĠĠĠĠĠ": 5148,
      "agar": 5149,
      "Desa": 5150,
      "udus": 5151,
      "engkapi": 5152,
      "ĠTab": 5153,
      "Ġ1967": 5154,
      "erat": 5155,
      "trisitas": 5156,
      "ĠOc": 5157,
      "Ġtewas": 5158,
      "ĠNaz": 5159,
      "amakan": 5160,
      "ĠDirektur": 5161,
      "Ġkami": 5162,
      "insip": 5163,
      "ĠPres": 5164,
      "Ġ*": 5165,
      "omen": 5166,
      "Ġpertemuan": 5167,
      "ĠPari": 5168,
      "ĠWanita": 5169,
      "Ġdial": 5170,
      "ĠIv": 5171,
      "Ġpendiri": 5172,
      "ĠRay": 5173,
      "alem": 5174,
      "ĠGK": 5175,
      "ĠClub": 5176,
      "ĠGus": 5177,
      "bah": 5178,
      "Ġmelew": 5179,
      "ĠAlbums": 5180,
      "ĠPasar": 5181,
      "ĠHab": 5182,
      "Ġasing": 5183,
      "Ġpenguasa": 5184,
      "unty": 5185,
      "Ġhilang": 5186,
      "ĠMik": 5187,
      "Ġmengurangi": 5188,
      "agan": 5189,
      "ĠCek": 5190,
      "apatan": 5191,
      "Ġmenengah": 5192,
      "Ġharga": 5193,
      "ering": 5194,
      "rick": 5195,
      "ĠBola": 5196,
      "Ġsuhu": 5197,
      "emar": 5198,
      "Ġcahaya": 5199,
      "ĠBek": 5200,
      "essi": 5201,
      "ĠShe": 5202,
      "Ġkalangan": 5203,
      "ĠPerwakilan": 5204,
      "ĠAstr": 5205,
      "ege": 5206,
      "Ġmengadakan": 5207,
      "uduki": 5208,
      "ĠRis": 5209,
      "Ġsign": 5210,
      "Ġdiv": 5211,
      "Ġberita": 5212,
      "Ġbet": 5213,
      "ĠBidang": 5214,
      "Ġurutan": 5215,
      "ĠMong": 5216,
      "ĠOp": 5217,
      "Ġkebutuhan": 5218,
      "Ð²": 5219,
      "Ġlapangan": 5220,
      "Han": 5221,
      "ĠHigh": 5222,
      "ĠKub": 5223,
      "Ġsayap": 5224,
      "sentrisitas": 5225,
      "ÙĪ": 5226,
      "rob": 5227,
      "elle": 5228,
      "Ġpertunjukan": 5229,
      "ĠAlkitab": 5230,
      "Ġdisebabkan": 5231,
      "ĠPam": 5232,
      "Ġmembuatnya": 5233,
      "ars": 5234,
      "Ġinf": 5235,
      "Ġkode": 5236,
      "Ġmutlaknya": 5237,
      "Ġmenentukan": 5238,
      "Ġturnamen": 5239,
      "ĠLuk": 5240,
      "ĠAsh": 5241,
      "Ø±": 5242,
      "Ġlel": 5243,
      "äº": 5244,
      "Ġpengetahuan": 5245,
      "Ġ1964": 5246,
      "ĠTol": 5247,
      "Ãº": 5248,
      "Ġpositif": 5249,
      "Ġmelibatkan": 5250,
      "Ġmengungk": 5251,
      "ĠAkademi": 5252,
      "Ġberfungsi": 5253,
      "mur": 5254,
      "ĠKhan": 5255,
      "Ġ75": 5256,
      "aboratorium": 5257,
      "dari": 5258,
      "OS": 5259,
      "ĠPantai": 5260,
      "itual": 5261,
      "Ġsamping": 5262,
      "Ġketua": 5263,
      "nu": 5264,
      "95": 5265,
      "edy": 5266,
      "ense": 5267,
      "ĠVi": 5268,
      "Ġmencatat": 5269,
      "ĠInt": 5270,
      "Ġpener": 5271,
      "amo": 5272,
      "ukur": 5273,
      "ĠLouis": 5274,
      "Ġmengeluarkan": 5275,
      "Ġbakar": 5276,
      "akkan": 5277,
      "umpulkan": 5278,
      "ĠTiga": 5279,
      "ĠJapan": 5280,
      "ello": 5281,
      "Ġkomunikasi": 5282,
      "Ġsetempat": 5283,
      "efin": 5284,
      "ĠPref": 5285,
      "ĠLive": 5286,
      "ĠGam": 5287,
      "Ġkelahiran": 5288,
      "Ġken": 5289,
      "Ġoper": 5290,
      "onc": 5291,
      "ĠYu": 5292,
      "Ġperhatian": 5293,
      "ius": 5294,
      "Ġ47": 5295,
      "ru": 5296,
      "Ġë": 5297,
      "ĠMiliter": 5298,
      "Ġujung": 5299,
      "ĠTour": 5300,
      "ĠFrancis": 5301,
      "Ġwisata": 5302,
      "ederasi": 5303,
      "imasi": 5304,
      "oku": 5305,
      "ĠPortugal": 5306,
      "ĠGreen": 5307,
      "ĠAcara": 5308,
      "ĠLuar": 5309,
      "ilitas": 5310,
      "ĠLand": 5311,
      "ĠCirebon": 5312,
      "adari": 5313,
      "Ġarsit": 5314,
      "ĠTro": 5315,
      "ĠSedangkan": 5316,
      "ĠMovie": 5317,
      "ĠGod": 5318,
      "elakaan": 5319,
      "ĠSerial": 5320,
      "Ġperbedaan": 5321,
      "anggil": 5322,
      "ĠJer": 5323,
      "ĠPemenang": 5324,
      "ĠYud": 5325,
      "olia": 5326,
      "Ġpenjualan": 5327,
      "ĠRp": 5328,
      "Ġ58": 5329,
      "inding": 5330,
      "ĠYam": 5331,
      "ĠDec": 5332,
      "Ġkeamanan": 5333,
      "entasi": 5334,
      "NA": 5335,
      "ĠAnth": 5336,
      "Ġ52": 5337,
      "ĠWI": 5338,
      "ĠHil": 5339,
      "ody": 5340,
      "ĠVer": 5341,
      "Ġ53": 5342,
      "ĠSuz": 5343,
      "Ġlem": 5344,
      "ordin": 5345,
      "Ġaplikasi": 5346,
      "esan": 5347,
      "Ġbagaimana": 5348,
      "Ġdilaksanakan": 5349,
      "Ġcinta": 5350,
      "ĠDKI": 5351,
      "ĠĠĠĠĠĠĠĠĠĠĠĠĠĠĠĠĠĠĠĠĠĠĠĠĠĠĠĠĠĠĠĠĠĠĠĠĠĠĠĠĠĠĠĠĠĠĠĠĠĠĠĠĠĠĠĠĠĠĠĠĠĠĠĠĠĠĠĠĠ": 5352,
      "ĠNus": 5353,
      "cle": 5354,
      "ĠChris": 5355,
      "ĠBelgia": 5356,
      "iam": 5357,
      "Ġ65": 5358,
      "Ġsaling": 5359,
      "iaan": 5360,
      "Sem": 5361,
      "Ġsegala": 5362,
      "Ġ1963": 5363,
      "Ġpintu": 5364,
      "ĠAud": 5365,
      "peng": 5366,
      "Ġmendorong": 5367,
      "ĠNorth": 5368,
      "Ġbukti": 5369,
      "elajari": 5370,
      "ordial": 5371,
      "ĠRen": 5372,
      "indungan": 5373,
      "ĠJon": 5374,
      "eku": 5375,
      "eus": 5376,
      "ĠSya": 5377,
      "Selain": 5378,
      "Ġmemegang": 5379,
      "Ġmo": 5380,
      "indak": 5381,
      "Ġ64": 5382,
      "Ġ1962": 5383,
      "Ġtik": 5384,
      "Ġ51": 5385,
      "eritakan": 5386,
      "ĠSon": 5387,
      "ree": 5388,
      "ilaku": 5389,
      "RT": 5390,
      "ĠManch": 5391,
      "Ġkeuangan": 5392,
      "Ġmemperl": 5393,
      "gunaan": 5394,
      "Ġvol": 5395,
      "lis": 5396,
      "Ġmemproduksi": 5397,
      "Ġdokumen": 5398,
      "enjata": 5399,
      "ular": 5400,
      "cel": 5401,
      "ÑĤ": 5402,
      "á»": 5403,
      "anjutan": 5404,
      "MS": 5405,
      "ies": 5406,
      "Ð»": 5407,
      "Ġpejabat": 5408,
      "ĠKara": 5409,
      "Sek": 5410,
      "ĠBob": 5411,
      "Ġprimordial": 5412,
      "Ġdingin": 5413,
      "ĠAsteroid": 5414,
      "Ġbertugas": 5415,
      "Ġtema": 5416,
      "ĠĠĠĠĠĠĠĠĠĠĠĠĠĠĠĠĠĠĠĠĠĠĠĠĠĠĠĠĠĠĠĠĠĠĠĠĠĠĠĠĠĠĠĠĠĠĠĠĠĠĠĠĠĠĠĠĠĠĠĠĠĠĠĠĠĠ": 5417,
      "Ġpilihan": 5418,
      "Ġdiubah": 5419,
      "ajur": 5420,
      "ubungkan": 5421,
      "ercayaan": 5422,
      "rey": 5423,
      "ĠTaiwan": 5424,
      "Ġdiranc": 5425,
      "ĠArgentina": 5426,
      "ĠCenter": 5427,
      "Ġlar": 5428,
      "Dem": 5429,
      "omun": 5430,
      "ĠSebagian": 5431,
      "ĠJoseph": 5432,
      "ĠNy": 5433,
      "Ġ98": 5434,
      "Ġmasjid": 5435,
      "Jepang": 5436,
      "Ġpabrik": 5437,
      "ardo": 5438,
      "ifikan": 5439,
      "ĠOleh": 5440,
      "ope": 5441,
      "ĠMid": 5442,
      "ĠOff": 5443,
      "ave": 5444,
      "Ġsil": 5445,
      "ĠĠĠĠĠĠĠĠĠĠĠĠĠĠĠĠĠĠĠĠĠĠĠĠĠĠĠĠĠĠĠĠĠĠĠĠĠĠĠĠĠĠĠĠĠĠĠĠĠĠĠĠĠĠĠĠĠĠĠĠĠĠĠĠĠĠĠ": 5446,
      "asaan": 5447,
      "Ġkabar": 5448,
      "ĠHindu": 5449,
      "Ġdirancang": 5450,
      "mp": 5451,
      "ĠReal": 5452,
      "Mar": 5453,
      "Ġsitu": 5454,
      "ĠPil": 5455,
      "Ġekstr": 5456,
      "ukl": 5457,
      "ĠJung": 5458,
      "ĠJambi": 5459,
      "unak": 5460,
      "Ġmerujuk": 5461,
      "ĠSta": 5462,
      "Ġkalah": 5463,
      "Ġlanjut": 5464,
      "okrasi": 5465,
      "amping": 5466,
      "1998": 5467,
      "ĠDu": 5468,
      "faatkan": 5469,
      "Ġsul": 5470,
      "ĠKamp": 5471,
      "lar": 5472,
      "Ġperbatasan": 5473,
      "Ġbuatan": 5474,
      "aksanaan": 5475,
      "oft": 5476,
      "ube": 5477,
      "ote": 5478,
      "ĠJac": 5479,
      "frac": 5480,
      "ustakaan": 5481,
      "ondok": 5482,
      "ĠRaden": 5483,
      "ft": 5484,
      "Ġmar": 5485,
      "elih": 5486,
      "ĠBengk": 5487,
      "Î½": 5488,
      "Ġangka": 5489,
      "Ġang": 5490,
      "ultur": 5491,
      "Ġkecuali": 5492,
      "Ġganda": 5493,
      "opsi": 5494,
      "Ġalih": 5495,
      "Ġpolisi": 5496,
      "ĠAst": 5497,
      "agon": 5498,
      "Ġkisah": 5499,
      "ĠBany": 5500,
      "ĠBanyak": 5501,
      "ĠFar": 5502,
      "sama": 5503,
      "ĠEksentrisitas": 5504,
      "Ġkuning": 5505,
      "Ġtahap": 5506,
      "yataan": 5507,
      "Ġsipil": 5508,
      "isimal": 5509,
      "ĠJim": 5510,
      "ĠHist": 5511,
      "Ġplanetisimal": 5512,
      "ĠKari": 5513,
      "ĠĠĠĠĠĠĠĠĠĠĠĠĠĠĠĠĠĠĠĠĠĠĠĠĠĠĠĠĠĠĠĠĠĠĠĠĠĠĠĠĠĠĠĠĠĠĠĠĠĠĠĠĠĠĠĠĠĠĠĠĠĠĠĠĠĠĠĠ": 5514,
      "ĠAdipati": 5515,
      "ois": 5516,
      "ĠWat": 5517,
      "kadang": 5518,
      "ĠBig": 5519,
      "bel": 5520,
      "ĠRT": 5521,
      "Ġringan": 5522,
      "ador": 5523,
      "ross": 5524,
      "ĠRacing": 5525,
      "acu": 5526,
      "vensi": 5527,
      "ograf": 5528,
      "ĠPrinc": 5529,
      "Ġmenteri": 5530,
      "Ġident": 5531,
      "ĠInc": 5532,
      "ĠGood": 5533,
      "Ġsulit": 5534,
      "ĠSerb": 5535,
      "ĠPictures": 5536,
      "Ġteks": 5537,
      "Ġlengkap": 5538,
      "Ġdiperkirakan": 5539,
      "osikan": 5540,
      "ĠCentr": 5541,
      "ebat": 5542,
      "PT": 5543,
      "ĠSkor": 5544,
      "asang": 5545,
      "ric": 5546,
      "Ġterpisah": 5547,
      "Ġco": 5548,
      "Ġuniversitas": 5549,
      "ĠPhilip": 5550,
      "Ġrilis": 5551,
      "ĠWon": 5552,
      "Ġbekas": 5553,
      "asasti": 5554,
      "Ġtapi": 5555,
      "Ġkomedi": 5556,
      "iller": 5557,
      "ĠBrit": 5558,
      "ĠUndang": 5559,
      "esia": 5560,
      "ĠKun": 5561,
      "indra": 5562,
      "Ġpesan": 5563,
      "Ġtekanan": 5564,
      "ahatan": 5565,
      "ĠEdward": 5566,
      "ĠLokasi": 5567,
      "rok": 5568,
      "als": 5569,
      "Ġlebar": 5570,
      "Ġ99": 5571,
      "Ġç": 5572,
      "ĠSemua": 5573,
      "Ġberkata": 5574,
      "edes": 5575,
      "Ġ59": 5576,
      "87": 5577,
      "ĠPot": 5578,
      "ifinal": 5579,
      "Ġgitar": 5580,
      "Ġberhenti": 5581,
      "ĠMerc": 5582,
      "ĠAyah": 5583,
      "ane": 5584,
      "ãĢ": 5585,
      "Ġseng": 5586,
      "Ġund": 5587,
      "hip": 5588,
      "ĠâĻĤ": 5589,
      "ĠSeo": 5590,
      "ingat": 5591,
      "Ġburuk": 5592,
      "yanya": 5593,
      "ĠKantor": 5594,
      "85": 5595,
      "ĠTime": 5596,
      "ĠInstitut": 5597,
      "ĠMatt": 5598,
      "Ã£o": 5599,
      "iyah": 5600,
      "ewat": 5601,
      "Ġmelewati": 5602,
      "Ġjadi": 5603,
      "Ġpembentukan": 5604,
      "Untuk": 5605,
      "Ġpekerja": 5606,
      "linya": 5607,
      "ĠMuda": 5608,
      "Ġaksi": 5609,
      "ogen": 5610,
      "awarkan": 5611,
      "intaan": 5612,
      "ĠBillboard": 5613,
      "Ġkiri": 5614,
      "Ġben": 5615,
      "lines": 5616,
      "wisata": 5617,
      "Ġmisi": 5618,
      "ose": 5619,
      "ĠĠĠĠĠĠĠĠĠĠĠĠĠĠĠĠĠĠĠĠĠĠĠĠĠĠĠĠĠĠĠĠĠĠĠĠĠĠĠĠĠĠĠĠĠĠĠĠĠĠĠĠĠĠĠĠĠĠĠĠĠĠĠĠĠĠĠĠĠĠ": 5620,
      "ĠKeterangan": 5621,
      "kapai": 5622,
      "arisan": 5623,
      "wegia": 5624,
      "ĠDev": 5625,
      "Ġhijau": 5626,
      "Ġmenjaga": 5627,
      "Ġsignifikan": 5628,
      "Ġé": 5629,
      "Ġistana": 5630,
      "ĠWayback": 5631,
      "Ġlaba": 5632,
      "ĠØ§ÙĦ": 5633,
      "Ġli": 5634,
      "anjing": 5635,
      "ulah": 5636,
      "ĠDong": 5637,
      "ĠMetro": 5638,
      "ET": 5639,
      "Ġlatar": 5640,
      "wai": 5641,
      "Ġ1959": 5642,
      "Ġrah": 5643,
      "ĠMend": 5644,
      "Ġserupa": 5645,
      "OL": 5646,
      "sal": 5647,
      "ĠRiz": 5648,
      "raz": 5649,
      "Ġmenurun": 5650,
      "stein": 5651,
      "amad": 5652,
      "ĠLong": 5653,
      "Ġpelangg": 5654,
      "enam": 5655,
      "umsi": 5656,
      "Ġterbagi": 5657,
      "asy": 5658,
      "ĠQue": 5659,
      "imah": 5660,
      "upiter": 5661,
      "ainya": 5662,
      "ĠCast": 5663,
      "angkalan": 5664,
      "áĢ": 5665,
      "ĠRecords": 5666,
      "Ġmenerb": 5667,
      "ĠAth": 5668,
      "ĠTuan": 5669,
      "Ġit": 5670,
      "urang": 5671,
      "arawan": 5672,
      "ĠSunda": 5673,
      "eliti": 5674,
      "AD": 5675,
      "ìĿ": 5676,
      "akaran": 5677,
      "Bill": 5678,
      "opsis": 5679,
      "hta": 5680,
      "ĠRiwayat": 5681,
      "udut": 5682,
      "Ġberlaku": 5683,
      "eki": 5684,
      "Ġdahulu": 5685,
      "Ġkomersial": 5686,
      "asaran": 5687,
      "ĠEmas": 5688,
      "ĠSelandia": 5689,
      "Ġakses": 5690,
      "ĠAktor": 5691,
      "1991": 5692,
      "sigen": 5693,
      "Ġadministratif": 5694,
      "Ġmelayani": 5695,
      "vi": 5696,
      "ormasi": 5697,
      "ejarah": 5698,
      "ĠUK": 5699,
      "gy": 5700,
      "ĠTerd": 5701,
      "andra": 5702,
      "pel": 5703,
      "Ġgugur": 5704,
      "Ġtet": 5705,
      "86": 5706,
      "arget": 5707,
      "MK": 5708,
      "Ac": 5709,
      "ĠHotel": 5710,
      "ĠAktris": 5711,
      "egisl": 5712,
      "otlandia": 5713,
      "Ġ1961": 5714,
      "ĠLam": 5715,
      "ansi": 5716,
      "ĠSport": 5717,
      "Ġmenawarkan": 5718,
      "ox": 5719,
      "elang": 5720,
      "ujukan": 5721,
      "Ġdikirim": 5722,
      "Kar": 5723,
      "Br": 5724,
      "kand": 5725,
      "Ġpu": 5726,
      "ette": 5727,
      "ĠSci": 5728,
      "Ġ56": 5729,
      "eff": 5730,
      "unuhan": 5731,
      "Ġdiperlukan": 5732,
      "ĠPoin": 5733,
      "aitan": 5734,
      "Ġ---------------------------": 5735,
      "Ġkesempatan": 5736,
      "Ġpemilik": 5737,
      "Ġaslinya": 5738,
      "ĠParoki": 5739,
      "Ġpanggung": 5740,
      "ohanes": 5741,
      "ominasi": 5742,
      "eal": 5743,
      "Ġ57": 5744,
      "unci": 5745,
      "ĠRum": 5746,
      "arus": 5747,
      "tual": 5748,
      "ĠAssoci": 5749,
      "ĠPubl": 5750,
      "orf": 5751,
      "ĠImam": 5752,
      "undur": 5753,
      "ĠGh": 5754,
      "ĠInv": 5755,
      "ism": 5756,
      "bers": 5757,
      "ĠSut": 5758,
      "Ġbertanggung": 5759,
      "ĠPeriode": 5760,
      "ĠRod": 5761,
      "KT": 5762,
      "Ġhip": 5763,
      "ukiman": 5764,
      "ĠRaf": 5765,
      "ĠDh": 5766,
      "onial": 5767,
      "Ġputr": 5768,
      "ĠAirlines": 5769,
      "Ġdian": 5770,
      "Ġmembeli": 5771,
      "ext": 5772,
      "Ġdiam": 5773,
      "ĠRuang": 5774,
      "abeth": 5775,
      "mal": 5776,
      "ĠMinggu": 5777,
      "ĠCat": 5778,
      "Ġsepuluh": 5779,
      "Ad": 5780,
      "Ġdipert": 5781,
      "ĠHat": 5782,
      "Ġbay": 5783,
      "field": 5784,
      "Ġberbahasa": 5785,
      "Ãł": 5786,
      "ĠCollege": 5787,
      "jin": 5788,
      "Ġmik": 5789,
      "ukis": 5790,
      "oso": 5791,
      "org": 5792,
      "Ġeksek": 5793,
      "ĠÄ": 5794,
      "ĠFormula": 5795,
      "Ġmassa": 5796,
      "Ġbersamaan": 5797,
      "OC": 5798,
      "ĠKhusus": 5799,
      "Ġ1958": 5800,
      "sky": 5801,
      "ĠProduksi": 5802,
      "Ġ54": 5803,
      "untungan": 5804,
      "Ġdisebutkan": 5805,
      "Ġangkatan": 5806,
      "ahul": 5807,
      "undurkan": 5808,
      "ayak": 5809,
      "tren": 5810,
      "Ġdokter": 5811,
      "ĠNam": 5812,
      "Ġjangka": 5813,
      "ardi": 5814,
      "ots": 5815,
      "ĠWilliams": 5816,
      "97": 5817,
      "ĠGad": 5818,
      "ĠPasukan": 5819,
      "ektar": 5820,
      "Beberapa": 5821,
      "esta": 5822,
      "imbulkan": 5823,
      "ĠMadrid": 5824,
      "awati": 5825,
      "Ġpenonton": 5826,
      "Ġditentukan": 5827,
      "omy": 5828,
      "set": 5829,
      "ĠTentara": 5830,
      "car": 5831,
      "Ġdihasilkan": 5832,
      "ĠBulan": 5833,
      "out": 5834,
      "Ġcampuran": 5835,
      "Ðº": 5836,
      "ĠMasyarakat": 5837,
      "abiskan": 5838,
      "Ġlayar": 5839,
      "ĠRy": 5840,
      "Ġmemakai": 5841,
      "uary": 5842,
      "aktif": 5843,
      "ĠSU": 5844,
      "Ġvs": 5845,
      "Î¹": 5846,
      "ĠSmith": 5847,
      "Ġhalaman": 5848,
      "Ġditand": 5849,
      "ĠLim": 5850,
      "Ġberjumlah": 5851,
      "AP": 5852,
      "awas": 5853,
      "ĠDik": 5854,
      "ĠWash": 5855,
      "ĠAndre": 5856,
      "ĠPac": 5857,
      "Ġkeluarganya": 5858,
      "Ġtipe": 5859,
      "ĠSap": 5860,
      "igrasi": 5861,
      "adiri": 5862,
      "%)": 5863,
      "ĠBag": 5864,
      "angguan": 5865,
      "Ġlogam": 5866,
      "opa": 5867,
      "ĠKategori": 5868,
      "1997": 5869,
      "adinya": 5870,
      "arakter": 5871,
      "Ġkadang": 5872,
      "ĠProduc": 5873,
      "iety": 5874,
      "Ġpimpinan": 5875,
      "ĠEast": 5876,
      "ĠLor": 5877,
      "imbang": 5878,
      "Ġgadis": 5879,
      "Ġajang": 5880,
      "92": 5881,
      "work": 5882,
      "ĠCel": 5883,
      "Und": 5884,
      "Ġmempr": 5885,
      "Ġ...": 5886,
      "ĠAugust": 5887,
      "Ġus": 5888,
      "ĠIndustri": 5889,
      "ĠNusantara": 5890,
      "ĠHill": 5891,
      "Ġmencegah": 5892,
      "ĠVersi": 5893,
      "ompetisi": 5894,
      "Ġmol": 5895,
      "Ġkonflik": 5896,
      "ĠLar": 5897,
      "ĠĠĠĠĠĠĠĠĠĠĠĠĠĠĠĠĠĠĠĠĠĠĠĠĠĠĠĠĠĠĠĠĠĠĠĠĠĠĠĠĠĠĠĠĠĠĠĠĠĠĠĠĠĠĠĠĠĠĠĠĠĠĠĠĠĠĠĠĠĠĠĠĠ": 5898,
      "awatan": 5899,
      "Ġmengungkapkan": 5900,
      "ujui": 5901,
      "atnya": 5902,
      "obi": 5903,
      "ĠJPN": 5904,
      "ĠKali": 5905,
      "po": 5906,
      "onj": 5907,
      "enario": 5908,
      "ĠHulu": 5909,
      "ĠChar": 5910,
      "odi": 5911,
      "ampaikan": 5912,
      "Ġkebanyakan": 5913,
      "ĠAdministr": 5914,
      "rin": 5915,
      "ĠRem": 5916,
      "ĠKlub": 5917,
      "Ġdimainkan": 5918,
      "ajurit": 5919,
      "Ġglobal": 5920,
      "ĠRub": 5921,
      "rari": 5922,
      "menia": 5923,
      "ĠOperasi": 5924,
      "Ġaku": 5925,
      "Ġmengaku": 5926,
      "ambo": 5927,
      "awak": 5928,
      "ĠPanas": 5929,
      "Film": 5930,
      "Ġtab": 5931,
      "Ġpotensi": 5932,
      "Ġkelima": 5933,
      "gin": 5934,
      "ĠMotor": 5935,
      "etujui": 5936,
      "Ġberbicara": 5937,
      "Ġbersa": 5938,
      "Ġmayoritas": 5939,
      "ĠTimor": 5940,
      "ĠNorwegia": 5941,
      "Ġne": 5942,
      "iburan": 5943,
      "ĠPor": 5944,
      "ĠSeg": 5945,
      "Ġdaging": 5946,
      "ĠPanc": 5947,
      "ĠBuku": 5948,
      "Ġni": 5949,
      "96": 5950,
      "ĠAtlet": 5951,
      "Ġdiluncurkan": 5952,
      "Ġbilangan": 5953,
      "eliling": 5954,
      "Kota": 5955,
      "ĠPenj": 5956,
      "ĠHeart": 5957,
      "ĠSkotlandia": 5958,
      "Mer": 5959,
      "Ġperal": 5960,
      "Ġpakaian": 5961,
      "egional": 5962,
      "nama": 5963,
      "ĠFern": 5964,
      "ÏĦ": 5965,
      "owo": 5966,
      "onald": 5967,
      "ĠPutih": 5968,
      "Ġskor": 5969,
      "Ġmelarikan": 5970,
      "Ġdekade": 5971,
      "ĠPeserta": 5972,
      "ĠĠĠĠĠĠĠĠĠĠĠĠĠĠĠĠĠĠĠĠĠĠĠĠĠĠĠĠĠĠĠĠĠĠĠĠĠĠĠĠĠĠĠĠĠĠĠĠĠĠĠĠĠĠĠĠĠĠĠĠĠĠĠĠĠĠĠĠĠĠĠĠĠĠĠ": 5973,
      "Ġrelatif": 5974,
      "ology": 5975,
      "Ġkitab": 5976,
      "akhiri": 5977,
      "Ġsetengah": 5978,
      "ĠAbdullah": 5979,
      "be": 5980,
      "Ġoksigen": 5981,
      "Ġpengan": 5982,
      "ax": 5983,
      "rama": 5984,
      "Ġmenjalankan": 5985,
      "adium": 5986,
      "Ġpetani": 5987,
      "icket": 5988,
      "Ġmenempati": 5989,
      "ĠSay": 5990,
      "ĠLab": 5991,
      "ewa": 5992,
      "Ġmengakibatkan": 5993,
      "ĠBan": 5994,
      "81": 5995,
      "ĠKitab": 5996,
      "Ġterbuat": 5997,
      "Ġfaktor": 5998,
      "ĠHit": 5999,
      "ĠJenis": 6000,
      "ated": 6001,
      "Si": 6002,
      "ĠSurat": 6003,
      "ĠChristian": 6004,
      "ĠRel": 6005,
      "Ak": 6006,
      "evin": 6007,
      "ĠTerbawah": 6008,
      "Ġbr": 6009,
      "Ġsepen": 6010,
      "Ġmurid": 6011,
      "ĠAdv": 6012,
      "Ġmeman": 6013,
      "ĠHarry": 6014,
      "estina": 6015,
      "ĠSari": 6016,
      "fe": 6017,
      "Ġpertumbuhan": 6018,
      "Ġmenjual": 6019,
      "Pr": 6020,
      "Ġata": 6021,
      "ĠLama": 6022,
      "ĠCup": 6023,
      "indung": 6024,
      "ift": 6025,
      "Ġdewa": 6026,
      "ĠPrefektur": 6027,
      "ĠSC": 6028,
      "ĠWall": 6029,
      "ĠTerp": 6030,
      "ede": 6031,
      "Ġlaporan": 6032,
      "tein": 6033,
      "Ġreaksi": 6034,
      "Billboard": 6035,
      "ĠDharma": 6036,
      "94": 6037,
      "Ġrump": 6038,
      "ĠRunner": 6039,
      "ucu": 6040,
      "Ġsastra": 6041,
      "Ġnormal": 6042,
      "iae": 6043,
      "ĠPenampilan": 6044,
      "oe": 6045,
      "lagu": 6046,
      "Ġdijual": 6047,
      "Ġdu": 6048,
      "ĠNic": 6049,
      "aton": 6050,
      "ĠCam": 6051,
      "ittle": 6052,
      "spirasi": 6053,
      "Ġmenerbitkan": 6054,
      "kannya": 6055,
      "iÄĩ": 6056,
      "Ġ1956": 6057,
      "ĠCy": 6058,
      "ĠBudaya": 6059,
      "Ġketidak": 6060,
      "ange": 6061,
      "ather": 6062,
      "cha": 6063,
      "ĠTah": 6064,
      "Ġteg": 6065,
      "ville": 6066,
      "orth": 6067,
      "Ġ1948": 6068,
      "indo": 6069,
      "ĠLapangan": 6070,
      "wn": 6071,
      "ĠSolo": 6072,
      "ĠLat": 6073,
      "ĠTangerang": 6074,
      "ily": 6075,
      "asari": 6076,
      "identifikasi": 6077,
      "Ġpandangan": 6078,
      "93": 6079,
      "ĠĠĠĠĠĠĠĠĠĠĠĠĠĠĠĠĠĠĠĠĠĠĠĠĠĠĠĠĠĠĠĠĠĠĠĠĠĠĠĠĠĠĠĠĠĠĠĠĠĠĠĠĠĠĠĠĠĠĠĠĠĠĠĠĠĠĠĠĠĠĠĠĠĠ": 6080,
      "ĠYohanes": 6081,
      "alyon": 6082,
      "Ġ63": 6083,
      "ĠBell": 6084,
      "Ġsektor": 6085,
      "ĠDasar": 6086,
      "ĠFormat": 6087,
      "ukt": 6088,
      "ĠOx": 6089,
      "ĠPu": 6090,
      "Ġ1955": 6091,
      "Äį": 6092,
      "omin": 6093,
      "ĠPenyanyi": 6094,
      "oyo": 6095,
      "arki": 6096,
      "Ġlunak": 6097,
      "Ġmenduduki": 6098,
      "Ġmenandatangani": 6099,
      "ĠAwal": 6100,
      "ĠAlbert": 6101,
      "ederal": 6102,
      "ĠSociety": 6103,
      "ĠMajelis": 6104,
      "ĠKisah": 6105,
      "jing": 6106,
      "Ġtoko": 6107,
      "Ġ68": 6108,
      "alik": 6109,
      "ĠGedung": 6110,
      "une": 6111,
      "ĠTers": 6112,
      "ĠHend": 6113,
      "Ġ61": 6114,
      "ĠAnti": 6115,
      "ĠSimp": 6116,
      "Ġpersegi": 6117,
      "ution": 6118,
      "ĠRat": 6119,
      "Ġ1957": 6120,
      "Ġ1949": 6121,
      "ambu": 6122,
      "ĠSamud": 6123,
      "onf": 6124,
      "ĠFe": 6125,
      "ulih": 6126,
      "ĠPersia": 6127,
      "Ġliga": 6128,
      "arth": 6129,
      "erbang": 6130,
      "ĠTam": 6131,
      "nes": 6132,
      "ekuensi": 6133,
      "Ġtaman": 6134,
      "kripsi": 6135,
      "ĠAngeles": 6136,
      "anyikan": 6137,
      "isipalitas": 6138,
      "Ġperintah": 6139,
      "awakan": 6140,
      "ikir": 6141,
      "Ġlewat": 6142,
      "Ġsatelit": 6143,
      "Ġleg": 6144,
      "Ġditunjuk": 6145,
      "Ġdiperkenalkan": 6146,
      "ĠStaf": 6147,
      "Ġlintas": 6148,
      "Ġartis": 6149,
      "ajer": 6150,
      "ĠHasan": 6151,
      "Ġ-----------------------------": 6152,
      "ĠImp": 6153,
      "Ġsudut": 6154,
      "Ġberagam": 6155,
      "Ġswasta": 6156,
      "Ġberkaitan": 6157,
      "Ġkeker": 6158,
      "ĠFat": 6159,
      "Ġetnis": 6160,
      "Ġmembutuhkan": 6161,
      "Ġdibawa": 6162,
      "ĠKereta": 6163,
      "ĠHouse": 6164,
      "ĠKend": 6165,
      "Ġpersen": 6166,
      "Ġtuan": 6167,
      "ĠLembaga": 6168,
      "math": 6169,
      "urah": 6170,
      "ĠĠĠĠĠĠĠĠĠĠĠĠĠĠĠĠĠĠĠĠĠĠĠĠĠĠĠĠĠĠĠĠĠĠĠĠĠĠĠĠĠĠĠĠĠĠĠĠĠĠĠĠĠĠĠĠĠĠĠĠĠĠĠĠĠĠĠĠĠĠĠĠ": 6171,
      "arjo": 6172,
      "Ġrum": 6173,
      "ĠContoh": 6174,
      "ejar": 6175,
      "ridge": 6176,
      "idaknya": 6177,
      "ĠHaw": 6178,
      "amaian": 6179,
      "é§": 6180,
      "1996": 6181,
      "uklir": 6182,
      "ĠWashington": 6183,
      "ĠTy": 6184,
      "sion": 6185,
      "Ġ62": 6186,
      "right": 6187,
      "ĠAlexander": 6188,
      "Ġdilihat": 6189,
      "ahlawan": 6190,
      "Ġpred": 6191,
      "Ġmekan": 6192,
      "orial": 6193,
      "tus": 6194,
      "Ġtertua": 6195,
      "Ġmenjalani": 6196,
      "ĠIbrani": 6197,
      "ister": 6198,
      "Ġfitur": 6199,
      "ÉĻ": 6200,
      "PU": 6201,
      "ĠCO": 6202,
      "Ġapakah": 6203,
      "ĠKus": 6204,
      "Ġkosong": 6205,
      "ĠKudus": 6206,
      "ĠSaudi": 6207,
      "ĠKum": 6208,
      "Ġ300": 6209,
      "ĠĠĠĠĠĠĠĠĠĠĠĠĠĠĠĠĠĠĠĠĠĠĠĠĠĠĠĠĠĠĠĠĠĠĠĠĠĠĠĠĠĠĠĠĠĠĠĠĠĠĠĠĠĠĠĠĠĠĠĠĠĠĠĠĠĠĠĠĠĠĠĠĠĠĠĠĠĠĠ": 6210,
      "Ġ1930": 6211,
      "Ġdif": 6212,
      "Ġso": 6213,
      "ĠPBB": 6214,
      "itr": 6215,
      "ÅĤ": 6216,
      "ĠHow": 6217,
      "indari": 6218,
      "Gr": 6219,
      "ĠĠĠĠĠĠĠĠĠĠĠĠĠĠĠĠĠĠĠĠĠĠĠĠĠĠĠĠĠĠĠĠĠĠĠĠĠĠĠĠĠĠĠĠĠĠĠĠĠĠĠĠĠĠĠĠĠĠĠĠĠĠĠĠĠĠĠĠĠĠĠĠĠĠĠĠ": 6220,
      "ĠKesultanan": 6221,
      "Ġ------------------------------": 6222,
      "Ġrekan": 6223,
      "ison": 6224,
      "ĠBre": 6225,
      "ĠKolonel": 6226,
      "Ġkonser": 6227,
      "ullah": 6228,
      "Ġberhubungan": 6229,
      "mel": 6230,
      "Ġmengus": 6231,
      "ĠDol": 6232,
      "ĠRuss": 6233,
      "awali": 6234,
      "Ġcok": 6235,
      "ĠShah": 6236,
      "FI": 6237,
      "ĠTemp": 6238,
      "akia": 6239,
      "Ġgelombang": 6240,
      "ematika": 6241,
      "isisi": 6242,
      "mis": 6243,
      "ĠManchester": 6244,
      "Ġna": 6245,
      "Ġataupun": 6246,
      "adai": 6247,
      "ĠMos": 6248,
      "82": 6249,
      "pem": 6250,
      "Ġbiru": 6251,
      "Ġmengakui": 6252,
      "nyata": 6253,
      "osen": 6254,
      "epon": 6255,
      "ĠNot": 6256,
      "....": 6257,
      "zah": 6258,
      "Ġbe": 6259,
      "Ġmengatur": 6260,
      "Ġpertahanan": 6261,
      "irinya": 6262,
      "onan": 6263,
      "ĠDream": 6264,
      "ĠAtas": 6265,
      "Ġtemp": 6266,
      "83": 6267,
      "ĠNon": 6268,
      "ĠArmenia": 6269,
      "Ġtamp": 6270,
      "asilika": 6271,
      "1995": 6272,
      "Ġalami": 6273,
      "Ġhadir": 6274,
      "Ġtersebar": 6275,
      "inci": 6276,
      "ĠLetkol": 6277,
      "Ġtulisan": 6278,
      "Ġmusuh": 6279,
      "Ġberkompetisi": 6280,
      "ĠKang": 6281,
      "sara": 6282,
      "Ġakadem": 6283,
      "llum": 6284,
      "ehi": 6285,
      "Ġpasi": 6286,
      "itics": 6287,
      "ropis": 6288,
      "Ġdiant": 6289,
      "Ġdana": 6290,
      "esor": 6291,
      "84": 6292,
      "ĠEnd": 6293,
      "ĠYour": 6294,
      "Kep": 6295,
      "Ġprot": 6296,
      "ĠActor": 6297,
      "otong": 6298,
      "encanakan": 6299,
      "ava": 6300,
      "é§ħ": 6301,
      "Ġkan": 6302,
      "chen": 6303,
      "ĠĠĠĠĠĠĠĠĠĠĠĠĠĠĠĠĠĠĠĠĠĠĠĠĠĠĠĠĠĠĠĠĠĠĠĠĠĠĠĠĠĠĠĠĠĠĠĠĠĠĠĠĠĠĠĠĠĠĠĠĠĠĠĠĠĠĠĠĠĠĠĠĠĠĠĠĠĠĠĠĠĠĠĠĠĠ": 6304,
      "imum": 6305,
      "Ġ72": 6306,
      "Man": 6307,
      "ĠIstana": 6308,
      "Ġdidasarkan": 6309,
      "ĠBersama": 6310,
      "Ġdinyatakan": 6311,
      "91": 6312,
      "Ġmengunjungi": 6313,
      "Ġfoto": 6314,
      "ball": 6315,
      "tas": 6316,
      "omet": 6317,
      "sman": 6318,
      "Ġkampanye": 6319,
      "ĠCas": 6320,
      "wo": 6321,
      "omosi": 6322,
      "ĠGuru": 6323,
      "sych": 6324,
      "Ġperaturan": 6325,
      "ĠDam": 6326,
      "Ġekor": 6327,
      "Ġkalender": 6328,
      "ĠAnda": 6329,
      "ektif": 6330,
      "Ġparoki": 6331,
      "ĠFa": 6332,
      "Ġpand": 6333,
      "anteri": 6334,
      "Ġsebutan": 6335,
      "Ġ66": 6336,
      "ĠSakit": 6337,
      "abad": 6338,
      "imewa": 6339,
      "atistik": 6340,
      "ĠTip": 6341,
      "Ġperwakilan": 6342,
      "ĠTangga": 6343,
      "Ġserangga": 6344,
      "kamah": 6345,
      "Ãª": 6346,
      "Ke": 6347,
      "Ä±": 6348,
      "irm": 6349,
      "Ġ73": 6350,
      "Saat": 6351,
      "Amer": 6352,
      "aborasi": 6353,
      "ĠPopul": 6354,
      "ĠSerbia": 6355,
      "ped": 6356,
      "Ġsepenuhnya": 6357,
      "ĠPendukung": 6358,
      "ets": 6359,
      "ĠHon": 6360,
      "Ġ1946": 6361,
      "adopsi": 6362,
      "egislatif": 6363,
      "Ġ1940": 6364,
      "ilasi": 6365,
      "ĠDisney": 6366,
      "arai": 6367,
      "abar": 6368,
      "Ġayat": 6369,
      "esmikan": 6370,
      "try": 6371,
      "ĠBud": 6372,
      "Ġberukuran": 6373,
      "ayam": 6374,
      "Ġsehari": 6375,
      "Ġras": 6376,
      "olisian": 6377,
      "elan": 6378,
      "Ġistrinya": 6379,
      "Ġteb": 6380,
      "ĠKode": 6381,
      "ebunan": 6382,
      "ĠID": 6383,
      "ĠSumatra": 6384,
      "ekt": 6385,
      "Ġmenghabiskan": 6386,
      "agalus": 6387,
      "ĠNob": 6388,
      "Ã¢": 6389,
      "ĠLatar": 6390,
      "Ġdilengkapi": 6391,
      "ĠBomb": 6392,
      "rogen": 6393,
      "ĠSutradara": 6394,
      "erikatan": 6395,
      "Ġdemi": 6396,
      "impunan": 6397,
      "ĠMenj": 6398,
      "ĠYay": 6399,
      "ii": 6400,
      "Ġpraktik": 6401,
      "Ã¼r": 6402,
      "Ġkariernya": 6403,
      "Ġmerebut": 6404,
      "etakan": 6405,
      "ĠPerb": 6406,
      "ĠTingkat": 6407,
      "ebo": 6408,
      "Ġrasi": 6409,
      "umbu": 6410,
      "ude": 6411,
      "Ġmelindungi": 6412,
      "Ġsenior": 6413,
      "ĠTay": 6414,
      "ianto": 6415,
      "Ġkecelakaan": 6416,
      "nia": 6417,
      "ãĤ¤": 6418,
      "ĠRoyal": 6419,
      "Ġmenetapkan": 6420,
      "iapkan": 6421,
      "Ġditangkap": 6422,
      "æľ": 6423,
      "Ġ--------------------------------------------------------------------------------": 6424,
      "ĠKristus": 6425,
      "stem": 6426,
      "ahami": 6427,
      "ĠTen": 6428,
      "odes": 6429,
      "ĠCil": 6430,
      "Ġgag": 6431,
      "Mas": 6432,
      "ĠBerdasarkan": 6433,
      "odo": 6434,
      "çĶ": 6435,
      "ĠDewa": 6436,
      "Ġmenyebutkan": 6437,
      "rak": 6438,
      "ĠGame": 6439,
      "ĠFut": 6440,
      "Ġdigambarkan": 6441,
      "ĠDit": 6442,
      "ĠDib": 6443,
      "egaraan": 6444,
      "Dia": 6445,
      "ĠKomandan": 6446,
      "imbangan": 6447,
      "Ġpengel": 6448,
      "sikan": 6449,
      "Ġpil": 6450,
      "ĠMayor": 6451,
      "ĠBeg": 6452,
      "sari": 6453,
      "ĠPalestina": 6454,
      "ÏĤ": 6455,
      "ĠBukit": 6456,
      "Ġmempelajari": 6457,
      "ĠSeperti": 6458,
      "ĠDer": 6459,
      "Ġkualitas": 6460,
      "IV": 6461,
      "Ġ1947": 6462,
      "ĠKomite": 6463,
      "Ġefektif": 6464,
      "entingan": 6465,
      "Ġdipl": 6466,
      "icus": 6467,
      "din": 6468,
      "embak": 6469,
      "erankan": 6470,
      "okteran": 6471,
      "Ġpembunuhan": 6472,
      "ĠToy": 6473,
      "Parlemen": 6474,
      "Ġmenghancurkan": 6475,
      "ĠLy": 6476,
      "Ġmengklaim": 6477,
      "ĠAkan": 6478,
      "ajian": 6479,
      "ĠAssociation": 6480,
      "ĠPember": 6481,
      "andu": 6482,
      "Ġajaran": 6483,
      "Ġmuseum": 6484,
      "Ġmaju": 6485,
      "ĠNews": 6486,
      "Ġsir": 6487,
      "VD": 6488,
      "pres": 6489,
      "}}}": 6490,
      "adiyah": 6491,
      "ĠÃĹ": 6492,
      "kes": 6493,
      "utra": 6494,
      "ection": 6495,
      "ĠMu": 6496,
      "ĠBea": 6497,
      "ĠAtl": 6498,
      "ĠTicket": 6499,
      "ĠPhil": 6500,
      "ĠSara": 6501,
      "ista": 6502,
      "à¹": 6503,
      "lex": 6504,
      "ĠKeamanan": 6505,
      "ĠDanau": 6506,
      "ĠFac": 6507,
      "Ø¯": 6508,
      "ĠKeputusan": 6509,
      "ĠWang": 6510,
      "idur": 6511,
      "Ġir": 6512,
      "ĠHor": 6513,
      "Undang": 6514,
      "lywood": 6515,
      "esp": 6516,
      "Ġremaja": 6517,
      "ĠPekan": 6518,
      "ĠĠĠĠĠĠĠĠĠĠĠĠĠĠĠĠĠĠĠĠĠĠĠĠĠĠĠĠĠĠĠĠĠĠĠĠĠĠĠĠĠĠĠĠĠĠĠĠĠĠĠĠĠĠĠĠĠĠĠĠĠĠĠĠĠĠĠĠĠĠĠ": 6519,
      "Ġtampak": 6520,
      "Sp": 6521,
      "Ġton": 6522,
      "Ġ01": 6523,
      "Ġsenyawa": 6524,
      "ĠHi": 6525,
      "Ġpembel": 6526,
      "ahas": 6527,
      "Ġpal": 6528,
      "gabungkan": 6529,
      "ĠKomando": 6530,
      "DA": 6531,
      "Ġmenimbulkan": 6532,
      "Selama": 6533,
      "nah": 6534,
      "ĠGerindra": 6535,
      "uliah": 6536,
      "Ġbes": 6537,
      "Ġperwira": 6538,
      "agen": 6539,
      "aft": 6540,
      "ĠIrak": 6541,
      "kuit": 6542,
      "ËĲ": 6543,
      "ĠCalon": 6544,
      "Ġbendera": 6545,
      "ĠSib": 6546,
      "Ġterbanyak": 6547,
      "ĠDim": 6548,
      "Ġberpendapat": 6549,
      "je": 6550,
      "Ġhukuman": 6551,
      "ĠSom": 6552,
      "semb": 6553,
      "ĠChi": 6554,
      "ket": 6555,
      "Ġdo": 6556,
      "ĠSpec": 6557,
      "nas": 6558,
      "Ġsimbol": 6559,
      "Ġpelayanan": 6560,
      "Sejak": 6561,
      "ebaran": 6562,
      "Ġelemen": 6563,
      "Ġjasa": 6564,
      "Ġjarang": 6565,
      "ĠRev": 6566,
      "Ġdisiarkan": 6567,
      "kah": 6568,
      "Hanzi": 6569,
      "ilidae": 6570,
      "ĠKelompok": 6571,
      ",\"": 6572,
      "uskup": 6573,
      "Ġditempatkan": 6574,
      "Ġdimasuk": 6575,
      "ĠPertahanan": 6576,
      "ĠPertandingan": 6577,
      "ĠRita": 6578,
      "PK": 6579,
      "Ġpengalaman": 6580,
      "ĠStory": 6581,
      "urangan": 6582,
      "1993": 6583,
      "ĠNick": 6584,
      "ĠKot": 6585,
      "wati": 6586,
      "ĠNav": 6587,
      "Ġpart": 6588,
      "elli": 6589,
      "ĠPakistan": 6590,
      "Ġpenyelenggara": 6591,
      "afat": 6592,
      "Ġ1942": 6593,
      "cher": 6594,
      "ĠMars": 6595,
      "Ġpelatihan": 6596,
      "angsawan": 6597,
      "Ġmenyelamatkan": 6598,
      "Ġdilaporkan": 6599,
      "1994": 6600,
      "Ġpri": 6601,
      "ĠPPP": 6602,
      "ĠSepak": 6603,
      "Ġmaks": 6604,
      "Ġdetik": 6605,
      "ĠLub": 6606,
      "urasi": 6607,
      "anggu": 6608,
      "ĠStreet": 6609,
      "Ġpesisir": 6610,
      "ĠBerlin": 6611,
      "ĠOm": 6612,
      "aus": 6613,
      "iawan": 6614,
      "ophagus": 6615,
      "ifikasi": 6616,
      "Ġland": 6617,
      "angkit": 6618,
      "ĠTun": 6619,
      "à®": 6620,
      "!\"": 6621,
      "Stasiun": 6622,
      "lain": 6623,
      "ĠAj": 6624,
      "hak": 6625,
      "ĠNig": 6626,
      "Ġartikel": 6627,
      "ĠCarol": 6628,
      "hai": 6629,
      "ĠWindows": 6630,
      "ĠProtestan": 6631,
      "Ġ71": 6632,
      "ĠFab": 6633,
      "abit": 6634,
      "gag": 6635,
      "emahkan": 6636,
      "ustin": 6637,
      "ĠGaleri": 6638,
      "Ġmember": 6639,
      "tress": 6640,
      "Ġ67": 6641,
      "ĠKongres": 6642,
      "Ġpegunungan": 6643,
      "ulusan": 6644,
      "ĠPanjang": 6645,
      "Ġkepercayaan": 6646,
      "osok": 6647,
      "ĠKonser": 6648,
      "ternatif": 6649,
      "ukar": 6650,
      "Ġkam": 6651,
      "Ġcer": 6652,
      "Ġpendapatan": 6653,
      "Ġsituasi": 6654,
      "aiki": 6655,
      "Ġadministrasi": 6656,
      "Laba": 6657,
      "upu": 6658,
      "ĠTerbuka": 6659,
      "Ġpemberontakan": 6660,
      "ukkan": 6661,
      "Ġmelaksanakan": 6662,
      "Ġpang": 6663,
      "ĠPok": 6664,
      "rest": 6665,
      "ĠVill": 6666,
      "Ġgangguan": 6667,
      "rot": 6668,
      "Ġdarat": 6669,
      "Ġdipindahkan": 6670,
      "Ġgame": 6671,
      "enaran": 6672,
      "ĠSetiap": 6673,
      "Ġditutup": 6674,
      "cus": 6675,
      "ophyllum": 6676,
      "ĠLawan": 6677,
      "ĠJr": 6678,
      "Ġperilaku": 6679,
      "Ġ88": 6680,
      "ĠCounty": 6681,
      "Ġmenghubungkan": 6682,
      "Ġpensi": 6683,
      "ĠPenduduk": 6684,
      "wah": 6685,
      "ĠCina": 6686,
      "ĠSeorang": 6687,
      "Ġdiantaranya": 6688,
      "ĠKuno": 6689,
      "rol": 6690,
      "Ġhidupnya": 6691,
      "ografis": 6692,
      "Ġfak": 6693,
      "ĠYun": 6694,
      "Ġanjing": 6695,
      "Ġmengumpulkan": 6696,
      "Ġperairan": 6697,
      "Ġbank": 6698,
      "eno": 6699,
      "ĠCorpor": 6700,
      "Ġstab": 6701,
      "ĠSingel": 6702,
      "Ġmundur": 6703,
      "Ġjenderal": 6704,
      "ĠLes": 6705,
      "Ġmenguasai": 6706,
      "astikan": 6707,
      "unggulan": 6708,
      "enek": 6709,
      "ĠĠĠĠĠĠĠĠĠĠĠĠĠĠĠĠĠĠĠĠĠĠĠĠĠĠĠĠĠĠĠĠĠĠĠĠĠĠĠĠĠĠĠĠĠĠĠĠĠĠĠĠĠĠĠĠĠĠĠĠĠĠĠĠĠĠĠĠĠĠĠĠĠĠĠĠĠ": 6710,
      "ĠBei": 6711,
      "ĠYon": 6712,
      "OM": 6713,
      "Ġmotor": 6714,
      "Ġperalatan": 6715,
      "Ġtulang": 6716,
      "Ġrute": 6717,
      "ĠPAN": 6718,
      "tip": 6719,
      "ĠBrun": 6720,
      "ĠDet": 6721,
      "mah": 6722,
      "Ġvon": 6723,
      "Ġanimasi": 6724,
      "Ġaman": 6725,
      "deka": 6726,
      "Ġkuda": 6727,
      "ĠAraneae": 6728,
      "EL": 6729,
      "arya": 6730,
      "ĠAleks": 6731,
      "ĠRid": 6732,
      "Ġtakhta": 6733,
      "ĠAgrilus": 6734,
      "Ġpengganti": 6735,
      "Ġè": 6736,
      "Bl": 6737,
      "Ġkomponen": 6738,
      "ĠHus": 6739,
      "ovasi": 6740,
      "stant": 6741,
      "Ġ77": 6742,
      "ader": 6743,
      "ĠDigital": 6744,
      "Bangsa": 6745,
      "Ġsemuanya": 6746,
      "Ġmanajemen": 6747,
      "izinkan": 6748,
      "ĠPerm": 6749,
      "ĠLain": 6750,
      "benar": 6751,
      "Ġ--------------------------------------------------------------------------------------------------------------------------------": 6752,
      "Ġeksekutif": 6753,
      "emia": 6754,
      "ĠLabel": 6755,
      "ĠKebudayaan": 6756,
      "vin": 6757,
      "Ġdataran": 6758,
      "Ġ69": 6759,
      "Ġsembilan": 6760,
      "ĠAC": 6761,
      "Ġidentitas": 6762,
      "Ġfokus": 6763,
      "thophagus": 6764,
      "hasil": 6765,
      "Ġkn": 6766,
      "ĠGlobal": 6767,
      "Ġ-------------------------------": 6768,
      "ĠLew": 6769,
      "ĠEf": 6770,
      "roc": 6771,
      "antum": 6772,
      "bin": 6773,
      "ĠManusia": 6774,
      "Ġkejadian": 6775,
      "ĠPaulus": 6776,
      "Ġartinya": 6777,
      "ido": 6778,
      "Ġ1954": 6779,
      "Ġ------------------------------------------------------------------------------------------------": 6780,
      "Ġdiduk": 6781,
      "ĠGerakan": 6782,
      "Eps": 6783,
      "Ġbesi": 6784,
      "Ġ78": 6785,
      "ilo": 6786,
      "ibus": 6787,
      "Ġpelabuhan": 6788,
      "ĠDaya": 6789,
      "ĠKuala": 6790,
      "Ġdikeluarkan": 6791,
      "ikh": 6792,
      "indahan": 6793,
      "ĠPremi": 6794,
      "Ġdidukung": 6795,
      "athan": 6796,
      "SM": 6797,
      "Ġgubernur": 6798,
      "Ġ----------------------------------------------------": 6799,
      "Ġcender": 6800,
      "Ġmelaporkan": 6801,
      "ĠJa": 6802,
      "Ġlantai": 6803,
      "AF": 6804,
      "tai": 6805,
      "PM": 6806,
      "omotif": 6807,
      "san": 6808,
      "ĠHay": 6809,
      "ĠUN": 6810,
      "Ġdikatakan": 6811,
      "Ġsekitarnya": 6812,
      "ĠSuriah": 6813,
      "Ġkritikus": 6814,
      "Bahasa": 6815,
      "uro": 6816,
      "Ġdioperasikan": 6817,
      "ĠLima": 6818,
      "Ġatom": 6819,
      "tag": 6820,
      "Ġsaud": 6821,
      "%.": 6822,
      "Ġinduk": 6823,
      "ĠMilan": 6824,
      "Ġduduk": 6825,
      "ĠPerserikatan": 6826,
      "Cl": 6827,
      "akti": 6828,
      "Ġlembap": 6829,
      "Ġ1952": 6830,
      "dengan": 6831,
      "ĠBatalyon": 6832,
      "enz": 6833,
      "Ġberkeb": 6834,
      "ako": 6835,
      "aster": 6836,
      "ÃŃa": 6837,
      "1992": 6838,
      "ĠMuhamm": 6839,
      "ĠPondok": 6840,
      "ĠPerp": 6841,
      "Ġmemperkenalkan": 6842,
      "ĠSas": 6843,
      "ĠScott": 6844,
      "Ġsisa": 6845,
      "Ġ1920": 6846,
      "ĠTata": 6847,
      "Ġseksual": 6848,
      "ĠPortugis": 6849,
      "ĠSn": 6850,
      "Ġlabel": 6851,
      "obe": 6852,
      "ĠPegunungan": 6853,
      "Ġaturan": 6854,
      "ĠNap": 6855,
      "Ġkepemimpinan": 6856,
      "ĠWIB": 6857,
      "Ġend": 6858,
      "etail": 6859,
      "Ang": 6860,
      "entar": 6861,
      "ĠEliz": 6862,
      "Ġ74": 6863,
      "Ġdimasukkan": 6864,
      "zer": 6865,
      "Ġkeberadaan": 6866,
      "wara": 6867,
      "Ã¸": 6868,
      "aza": 6869,
      "Ġmedis": 6870,
      "arn": 6871,
      "Ġperlindungan": 6872,
      "Ġpermintaan": 6873,
      "ĠYayasan": 6874,
      "isual": 6875,
      "Ġmini": 6876,
      "agamaan": 6877,
      "ĠBalai": 6878,
      "Ġdivisi": 6879,
      "Ġpsik": 6880,
      "ĠKop": 6881,
      "ĠSemen": 6882,
      "Ġprajurit": 6883,
      "Sebagai": 6884,
      "adh": 6885,
      "ĠKapal": 6886,
      "Ġtata": 6887,
      "Is": 6888,
      "ĠTujuan": 6889,
      "Ġdinding": 6890,
      "Ġsingkat": 6891,
      "1990": 6892,
      "ally": 6893,
      "ĠLan": 6894,
      "mati": 6895,
      "Ġbertujuan": 6896,
      "Ġsambil": 6897,
      "Ġmenyadari": 6898,
      "Ġ85": 6899,
      "Ġmemang": 6900,
      "Ġcenderung": 6901,
      "oides": 6902,
      "ĠLady": 6903,
      "Ġuskup": 6904,
      "ayaran": 6905,
      "ĠLittle": 6906,
      "onesian": 6907,
      "ãĥ¼ãĥ": 6908,
      "Ġmengangkat": 6909,
      "iac": 6910,
      "ĠPalembang": 6911,
      "med": 6912,
      "Ġterdaftar": 6913,
      "uit": 6914,
      "ishi": 6915,
      "Ġkopi": 6916,
      "Ġdiakui": 6917,
      "Ġtahunan": 6918,
      "ancang": 6919,
      "olaan": 6920,
      "Ġseluas": 6921,
      "ãģĦ": 6922,
      "ector": 6923,
      "Ġteater": 6924,
      "ĠSimon": 6925,
      "ĠWir": 6926,
      "angani": 6927,
      "sus": 6928,
      "ebaskan": 6929,
      "agama": 6930,
      "pura": 6931,
      "ĠAndi": 6932,
      "ĠSuka": 6933,
      "ĠTerdapat": 6934,
      "ĠDang": 6935,
      "Ġperingatan": 6936,
      "ĠIndah": 6937,
      "udin": 6938,
      "aliknya": 6939,
      "idat": 6940,
      "Pend": 6941,
      "ormati": 6942,
      "bersama": 6943,
      "ĠTimes": 6944,
      "eed": 6945,
      "ucing": 6946,
      "Ġkendali": 6947,
      "Ġmenghindari": 6948,
      "ektorat": 6949,
      "Ġrock": 6950,
      "Ġkejahatan": 6951,
      "Ġnya": 6952,
      "ĠMarch": 6953,
      "Ġpola": 6954,
      "egoro": 6955,
      "ery": 6956,
      "Ġkew": 6957,
      "ontalo": 6958,
      "tidak": 6959,
      "Ġsesi": 6960,
      "Ġklasik": 6961,
      "ous": 6962,
      "ajat": 6963,
      "ĠBlue": 6964,
      "Ġ1953": 6965,
      "uhur": 6966,
      "ĠJuri": 6967,
      "ĠWhite": 6968,
      "ĠGeografi": 6969,
      "ãĤ¹": 6970,
      "ĠLeon": 6971,
      "ĠSaf": 6972,
      "ĠLine": 6973,
      "Ġkepentingan": 6974,
      "ĠSev": 6975,
      "Dengan": 6976,
      "pin": 6977,
      "Ġmun": 6978,
      "Ġ120": 6979,
      "oor": 6980,
      "Ġmacam": 6981,
      "Ġraya": 6982,
      "ĠBung": 6983,
      "ray": 6984,
      "Ġdewan": 6985,
      "ĠCritics": 6986,
      "Ġlepas": 6987,
      "ĠModel": 6988,
      "ĠKak": 6989,
      "ante": 6990,
      "ĠFox": 6991,
      "ĠYusuf": 6992,
      "Ġkaya": 6993,
      "IM": 6994,
      "arkas": 6995,
      "Ġturut": 6996,
      "Ġagresi": 6997,
      "Ġlingk": 6998,
      "ĠJoe": 6999,
      "Ġmengajukan": 7000,
      "antinya": 7001,
      "Ġ76": 7002,
      "amilton": 7003,
      "ĠVII": 7004,
      "syah": 7005,
      "Ġsini": 7006,
      "ĠBengkulu": 7007,
      "untut": 7008,
      "ĠYupiter": 7009,
      "Ġsetidaknya": 7010,
      "ĠTerminal": 7011,
      "Ġmenambahkan": 7012,
      "asama": 7013,
      "On": 7014,
      "entrasi": 7015,
      "inginan": 7016,
      "Ġkatedral": 7017,
      "ĠPenulis": 7018,
      "Ġtransportasi": 7019,
      "ĠGreat": 7020,
      "Ġangin": 7021,
      "Ġmemerintah": 7022,
      "adwal": 7023,
      "ĠCos": 7024,
      "ĠChoice": 7025,
      "ĠGreg": 7026,
      "Ġpingg": 7027,
      "ĠMuhammadiyah": 7028,
      "Ġboleh": 7029,
      "Ġbat": 7030,
      "mos": 7031,
      "Ġle": 7032,
      "ĠHard": 7033,
      "Ġpenduduknya": 7034,
      "ĠBin": 7035,
      "ĠRoad": 7036,
      "Ġdiperoleh": 7037,
      "Ġdalamnya": 7038,
      "Ġbalik": 7039,
      "ĠNan": 7040,
      "ĠNak": 7041,
      "ĠKro": 7042,
      "pi": 7043,
      "ĠPenerb": 7044,
      "ĠParlemen": 7045,
      "ĠSor": 7046,
      "ĠAmb": 7047,
      "ĠKevin": 7048,
      "ĠĠĠĠĠĠĠĠĠĠĠĠĠĠĠĠĠĠĠĠĠĠĠĠĠĠĠĠĠĠĠĠĠĠĠĠĠĠĠĠĠĠĠĠĠĠĠĠĠĠĠĠĠĠĠĠĠĠĠĠĠĠĠĠĠĠĠĠĠĠĠĠĠĠĠĠĠĠ": 7049,
      "ombia": 7050,
      "Ïģ": 7051,
      "Ġparlemen": 7052,
      "antangan": 7053,
      "ĠKul": 7054,
      "ĠBrown": 7055,
      "ĠTech": 7056,
      "Ġditampilkan": 7057,
      "Ġgempa": 7058,
      "epakatan": 7059,
      "ĠDuk": 7060,
      "Ġsebagaimana": 7061,
      "Ġ1951": 7062,
      "Ġkapasitas": 7063,
      "Ġil": 7064,
      "Ġbulu": 7065,
      "ĠSoekar": 7066,
      "âŃĲ": 7067,
      "Ġdirek": 7068,
      "Ġtepi": 7069,
      "umba": 7070,
      "enangkan": 7071,
      "idah": 7072,
      "Ġdusun": 7073,
      "emaat": 7074,
      "Ġterkadang": 7075,
      "ebutan": 7076,
      "safat": 7077,
      "Ġpernyataan": 7078,
      "ĠDor": 7079,
      "Ġnuklir": 7080,
      "ĠSugi": 7081,
      "ĠPrab": 7082,
      "ĠKeuangan": 7083,
      "ĠGil": 7084,
      "BD": 7085,
      "avorit": 7086,
      "anggar": 7087,
      "Ġmengarah": 7088,
      "Ġgar": 7089,
      "raja": 7090,
      "ĠMaster": 7091,
      "LT": 7092,
      "Ġpenjara": 7093,
      "Ġsuci": 7094,
      "ks": 7095,
      "azz": 7096,
      "Nama": 7097,
      "ĠMaka": 7098,
      "ĠRud": 7099,
      "pu": 7100,
      "ĠServ": 7101,
      "Ġindependen": 7102,
      "Ġundang": 7103,
      "ĠOh": 7104,
      "Ġjantung": 7105,
      "Ġperguruan": 7106,
      "ĠBekasi": 7107,
      "ĠHad": 7108,
      "Îµ": 7109,
      "ĠGeorgia": 7110,
      "Ġ81": 7111,
      "ĠRevolusi": 7112,
      "Ġatlet": 7113,
      "Pert": 7114,
      "asket": 7115,
      "Ketika": 7116,
      "ĠArena": 7117,
      "ĠMuk": 7118,
      "Ġunik": 7119,
      "Ġrisiko": 7120,
      "Ġdimaksud": 7121,
      "Ġmenekan": 7122,
      "ĠST": 7123,
      "Ġment": 7124,
      "jung": 7125,
      "ĠStadium": 7126,
      "ĠVik": 7127,
      "ungkan": 7128,
      "Ġrest": 7129,
      "Ġberumur": 7130,
      "amba": 7131,
      "ĠGorontalo": 7132,
      "omatis": 7133,
      "aminya": 7134,
      "olitan": 7135,
      "Ġmengajar": 7136,
      "Ġpenggemar": 7137,
      "ĠRoh": 7138,
      "Ġwalaupun": 7139,
      "Nya": 7140,
      "rahim": 7141,
      "elia": 7142,
      "Ġmenempatkan": 7143,
      "ĠFi": 7144,
      "ĠBarb": 7145,
      "Ġmeneg": 7146,
      "å®": 7147,
      "ukisan": 7148,
      "bophyllum": 7149,
      "hu": 7150,
      "ĠDok": 7151,
      "Ġpop": 7152,
      "Ġmeluncurkan": 7153,
      "ĠSeh": 7154,
      "Ġtangk": 7155,
      "Ġlapisan": 7156,
      "kata": 7157,
      "ĠSit": 7158,
      "under": 7159,
      "ĠCeko": 7160,
      "reen": 7161,
      "Ġsemi": 7162,
      "adangan": 7163,
      "ĠElizabeth": 7164,
      "akhluk": 7165,
      "Ġdampak": 7166,
      "ariat": 7167,
      "Ġseniman": 7168,
      "ĠBandara": 7169,
      "yangk": 7170,
      "Ġ---------------------------------": 7171,
      "km": 7172,
      "untuk": 7173,
      "Ġlawan": 7174,
      "ĠAch": 7175,
      "utaan": 7176,
      "mond": 7177,
      "åħ": 7178,
      "orasi": 7179,
      "ĠIsma": 7180,
      "Ġrekor": 7181,
      "ject": 7182,
      "ĠRog": 7183,
      "Ġpasien": 7184,
      "ĠFerrari": 7185,
      "Ġinti": 7186,
      "Ġpenjel": 7187,
      "iao": 7188,
      "ograp": 7189,
      "ĠDemografi": 7190,
      "ospong": 7191,
      "ĠAndrew": 7192,
      "Ġhotel": 7193,
      "Ġmengakhiri": 7194,
      "Ġkaisar": 7195,
      "ĠSpr": 7196,
      "endalikan": 7197,
      "ANG": 7198,
      "ĠWeb": 7199,
      "Ġ----------------------------------": 7200,
      "ĠHamilton": 7201,
      "Ġ1944": 7202,
      "à¥": 7203,
      "ĠHu": 7204,
      "Ġ--------------------------------------------------------": 7205,
      "hire": 7206,
      "ĠArtist": 7207,
      "ĠIsland": 7208,
      "Ġkartu": 7209,
      "ĠNasDem": 7210,
      "Hz": 7211,
      "elamatan": 7212,
      "Ġadik": 7213,
      "ken": 7214,
      "Ġbud": 7215,
      "ĠCorporation": 7216,
      "dian": 7217,
      "esua": 7218,
      "Ġlomba": 7219,
      "Ġtempur": 7220,
      "icu": 7221,
      "ĠInj": 7222,
      "mann": 7223,
      "oskop": 7224,
      "otik": 7225,
      "Ġ79": 7226,
      "ĠâĢĺ": 7227,
      "à¦": 7228,
      "ĠAsal": 7229,
      "day": 7230,
      "her": 7231,
      "Ġarsitektur": 7232,
      "Ġarti": 7233,
      "Ġpres": 7234,
      "Ġtelur": 7235,
      "erusalem": 7236,
      "Ġrangka": 7237,
      "entuan": 7238,
      "ubang": 7239,
      "ĠLang": 7240,
      "ĠBritish": 7241,
      "epaskan": 7242,
      "ĠâĨĴ": 7243,
      "inder": 7244,
      "ĠChic": 7245,
      "ĠSte": 7246,
      "Ġaspek": 7247,
      "Ġmemerintahkan": 7248,
      "Ġpam": 7249,
      "Ġapabila": 7250,
      "ĠSurakarta": 7251,
      "antian": 7252,
      "Ġpendapat": 7253,
      "ocok": 7254,
      "ĠMahkamah": 7255,
      "ĠAmerica": 7256,
      "ĠIrama": 7257,
      "Ġbila": 7258,
      "embalikan": 7259,
      "ĠPasifik": 7260,
      "ĠHubungan": 7261,
      "Ġpatung": 7262,
      "Secara": 7263,
      "bl": 7264,
      "ĠNetwork": 7265,
      "Ġdebutnya": 7266,
      "ĠYos": 7267,
      "Ã©r": 7268,
      "du": 7269,
      "ĠĠĠĠĠĠĠĠĠĠĠĠĠĠĠĠĠĠĠĠĠĠĠĠĠĠĠĠĠĠĠĠĠĠĠĠĠĠĠĠĠĠĠĠĠĠĠĠĠĠĠĠĠĠĠĠĠĠĠĠĠĠĠĠĠĠĠĠĠĠĠĠĠĠĠĠĠĠĠĠ": 7270,
      "ĠRi": 7271,
      "efinis": 7272,
      "ekatan": 7273,
      "Ġberkebangsaan": 7274,
      "ĠSyah": 7275,
      "ĠTetap": 7276,
      "ĠMuara": 7277,
      "Ġmikro": 7278,
      "}{": 7279,
      "alas": 7280,
      "Ġparuh": 7281,
      "Ġprinsip": 7282,
      "kl": 7283,
      "EC": 7284,
      "ĠGib": 7285,
      "Ġbeserta": 7286,
      "idik": 7287,
      "Ada": 7288,
      "Ã«": 7289,
      "Ġdihar": 7290,
      "embah": 7291,
      "ĠWis": 7292,
      "ĠApp": 7293,
      "ĠMata": 7294,
      "ĠChen": 7295,
      "Ġcir": 7296,
      "ĠDend": 7297,
      "alog": 7298,
      "Ġkebudayaan": 7299,
      "Ġpengadilan": 7300,
      "Ġbangsawan": 7301,
      "ĠSip": 7302,
      "ĠSr": 7303,
      "ĠChang": 7304,
      "Ġmemperb": 7305,
      "ĠBatas": 7306,
      "ĠMulai": 7307,
      "ĠLov": 7308,
      "Ġmenyerap": 7309,
      "ĠSteph": 7310,
      "Ġfe": 7311,
      "ĠVirgin": 7312,
      "Ġinst": 7313,
      "onto": 7314,
      "ĠSound": 7315,
      "ĠJuan": 7316,
      "ĠStan": 7317,
      "atalkan": 7318,
      "ĠLest": 7319,
      "ancur": 7320,
      "isis": 7321,
      "ĠHonda": 7322,
      "ĠPus": 7323,
      "Ġ1941": 7324,
      "erensi": 7325,
      "eau": 7326,
      "ĠFinlandia": 7327,
      "Ġrook": 7328,
      "ugaskan": 7329,
      "300": 7330,
      "rian": 7331,
      "ĠWan": 7332,
      "Ġmey": 7333,
      "Ġpulang": 7334,
      "ĠConc": 7335,
      "umpul": 7336,
      "ÃŃn": 7337,
      "imat": 7338,
      "achi": 7339,
      "ĠIndonesian": 7340,
      "Ġperson": 7341,
      "ĠAnna": 7342,
      "ĠTegal": 7343,
      "Ġelektronik": 7344,
      "Ġternyata": 7345,
      "ĠGenus": 7346,
      "ectr": 7347,
      "ser": 7348,
      "Ġlangit": 7349,
      "Ġrusak": 7350,
      "won": 7351,
      "ĠJones": 7352,
      "ĠChann": 7353,
      "omunikasi": 7354,
      "ĠPier": 7355,
      "ĠItu": 7356,
      "ĠFrans": 7357,
      "Ġalternatif": 7358,
      "Ġrangkaian": 7359,
      "ĠPersatuan": 7360,
      "Ġkoleksi": 7361,
      "NC": 7362,
      "Ġhist": 7363,
      "ishop": 7364,
      "Ġberjarak": 7365,
      "Ġmendek": 7366,
      "Ġpensiun": 7367,
      "Ġkematiannya": 7368,
      "zy": 7369,
      "ÅŁ": 7370,
      "ĠMenengah": 7371,
      "eza": 7372,
      "Ġ82": 7373,
      "ĠTon": 7374,
      "manen": 7375,
      "IA": 7376,
      "Ġpajak": 7377,
      "ĠPeraturan": 7378,
      "ĠGirls": 7379,
      "Ġmenceritakan": 7380,
      "ĠAbad": 7381,
      "Gereja": 7382,
      "ĠUtsman": 7383,
      "Ġmit": 7384,
      "Ġperak": 7385,
      "Ġruangan": 7386,
      "ven": 7387,
      "Ġmengal": 7388,
      "yana": 7389,
      "rain": 7390,
      "apus": 7391,
      "isinya": 7392,
      "imi": 7393,
      "bus": 7394,
      "Meskipun": 7395,
      "Ġdirektur": 7396,
      "ĠPesan": 7397,
      "ĠShar": 7398,
      "Ø¨": 7399,
      "ekul": 7400,
      "ĠKBS": 7401,
      "dik": 7402,
      "Ġserangkaian": 7403,
      "ĠBall": 7404,
      "ĠTir": 7405,
      "heim": 7406,
      "ĠBeb": 7407,
      "cal": 7408,
      "Ġkarbon": 7409,
      "Ġsebab": 7410,
      "Ġmengundurkan": 7411,
      "apal": 7412,
      "ĠShang": 7413,
      "bol": 7414,
      "upsi": 7415,
      "ĠInformasi": 7416,
      "album": 7417,
      "ganegaraan": 7418,
      "Ġgelap": 7419,
      "Amerika": 7420,
      "ĠStudio": 7421,
      "ĠFirst": 7422,
      "Ġsarana": 7423,
      "KA": 7424,
      "awanc": 7425,
      "Ġpelaksanaan": 7426,
      "ĠIvan": 7427,
      "yair": 7428,
      "ative": 7429,
      "ĠMoon": 7430,
      "Ġtampaknya": 7431,
      "Ġsensus": 7432,
      "ĠMG": 7433,
      "ĠNug": 7434,
      "ĠSav": 7435,
      "ogan": 7436,
      "ĠWood": 7437,
      "ĠTown": 7438,
      "Ġmenutup": 7439,
      "Ġbertindak": 7440,
      "ĠSugiarto": 7441,
      "ĠCarlos": 7442,
      "ĠArch": 7443,
      "Ġmenentang": 7444,
      "Ġkering": 7445,
      "akaman": 7446,
      "ĠOpen": 7447,
      "Ġmakam": 7448,
      "Ġlukisan": 7449,
      "ĠInfanteri": 7450,
      "ĠJay": 7451,
      "Ġjembatan": 7452,
      "Ġarm": 7453,
      "Ġsiaran": 7454,
      "empor": 7455,
      "ĠPKB": 7456,
      "ges": 7457,
      "dt": 7458,
      "ĠActress": 7459,
      "ĠLaboratorium": 7460,
      "Ġkekerasan": 7461,
      "ondo": 7462,
      "Keb": 7463,
      "ĠMcC": 7464,
      "ĠMobil": 7465,
      "ĠAstragalus": 7466,
      "ĠMam": 7467,
      "Am": 7468,
      "ĠLingkungan": 7469,
      "efinisi": 7470,
      "ĠAbb": 7471,
      "Ġdibunuh": 7472,
      "Ġkeuntungan": 7473,
      "Ġ00": 7474,
      "ĠNabi": 7475,
      "adapan": 7476,
      "Ġkari": 7477,
      "emuka": 7478,
      "ĠLaks": 7479,
      "asihat": 7480,
      "ĠLem": 7481,
      "ãĥ©": 7482,
      "ĠJadi": 7483,
      "Ġsatuan": 7484,
      "AC": 7485,
      "}\\": 7486,
      "ĠMeg": 7487,
      "Ġu": 7488,
      "och": 7489,
      "Ġlangkah": 7490,
      "ĠGard": 7491,
      "ĠHand": 7492,
      "Ġperannya": 7493,
      "Ġvolume": 7494,
      "ĠHidup": 7495,
      "ĠEc": 7496,
      "efinisikan": 7497,
      "ited": 7498,
      "ĠMike": 7499,
      "astian": 7500,
      "ĠCin": 7501,
      "ĠInstitute": 7502,
      "Ġpelatih": 7503,
      "fin": 7504,
      "otaan": 7505,
      "ĠKarl": 7506,
      "Ġ-------------------------------------": 7507,
      "inginkan": 7508,
      "Ġsyarat": 7509,
      "ĠChampionship": 7510,
      "inga": 7511,
      "Dari": 7512,
      "Sc": 7513,
      "ĠLalu": 7514,
      "Ġbis": 7515,
      "Ġrat": 7516,
      "ĠBunda": 7517,
      "ĠLas": 7518,
      "Ġmengin": 7519,
      "ĠYas": 7520,
      "ĠPrim": 7521,
      "ĠGames": 7522,
      "Ġ95": 7523,
      "ĠBangunan": 7524,
      "ĠTex": 7525,
      "Ġfiksi": 7526,
      "kom": 7527,
      "Ġpasti": 7528,
      "Ġ89": 7529,
      "ĠManajemen": 7530,
      "ĠPertanian": 7531,
      "ĠKata": 7532,
      "Ġimam": 7533,
      "ĠFil": 7534,
      "Ġpengusaha": 7535,
      "utip": 7536,
      "Ġ87": 7537,
      "Ter": 7538,
      "ains": 7539,
      "zan": 7540,
      "bek": 7541,
      "ĠSingh": 7542,
      "ĠDisk": 7543,
      "ĠKarakter": 7544,
      "inger": 7545,
      "Ġlib": 7546,
      "emix": 7547,
      "Ġdiciptakan": 7548,
      "Ing": 7549,
      "jun": 7550,
      "Ġmand": 7551,
      "ĠPM": 7552,
      "jemahkan": 7553,
      "Ġkamar": 7554,
      "anggapan": 7555,
      "umpur": 7556,
      "pun": 7557,
      "anja": 7558,
      "ĠPsych": 7559,
      "uba": 7560,
      "ancangan": 7561,
      "emannya": 7562,
      "guna": 7563,
      "rys": 7564,
      "Ġnot": 7565,
      "Ġgal": 7566,
      "vel": 7567,
      "Ġ150": 7568,
      "anka": 7569,
      "ĠPKS": 7570,
      "Ġmengacu": 7571,
      "ĠTamb": 7572,
      "Ġdinamai": 7573,
      "ĠSBS": 7574,
      "antas": 7575,
      "ĠJe": 7576,
      "ĠPerl": 7577,
      "ĠPengembangan": 7578,
      "ĠAkibat": 7579,
      "ĠBy": 7580,
      "tions": 7581,
      "Ġmenangkap": 7582,
      "Indonesia": 7583,
      "ĠRey": 7584,
      "ĠCa": 7585,
      "Sebelum": 7586,
      "Ġkeagamaan": 7587,
      "anggilan": 7588,
      "cast": 7589,
      "Ġberlokasi": 7590,
      "jur": 7591,
      "Ġpedagang": 7592,
      "iapan": 7593,
      "ĠVictoria": 7594,
      "Ġskala": 7595,
      "ĠRach": 7596,
      "eme": 7597,
      "Ġkolonial": 7598,
      "Ġbenteng": 7599,
      "caman": 7600,
      "ĠHas": 7601,
      "ĠTelevision": 7602,
      "bat": 7603,
      "ĠSes": 7604,
      "ĠCamb": 7605,
      "Ġnyata": 7606,
      "lv": 7607,
      "Ġ400": 7608,
      "ĠMaur": 7609,
      "igasi": 7610,
      "Ġprotein": 7611,
      "Ġ1939": 7612,
      "iarkan": 7613,
      "Ġagresif": 7614,
      "orejo": 7615,
      "Ġplatform": 7616,
      "ĠĠĠĠĠĠĠĠĠĠĠĠĠĠĠĠĠĠĠĠĠĠĠĠĠĠĠĠĠĠĠĠĠĠĠĠĠĠĠĠĠĠĠĠĠĠĠĠĠĠĠĠĠĠĠĠĠĠĠĠĠĠĠĠĠĠĠĠĠĠĠĠĠĠĠĠĠĠĠĠĠĠĠĠ": 7617,
      "ĠNad": 7618,
      "ĠWales": 7619,
      "Ġpromosi": 7620,
      "ubur": 7621,
      "arke": 7622,
      "Ġ84": 7623,
      "ĠPrat": 7624,
      "ĠTampil": 7625,
      "Ġtepatnya": 7626,
      "asemen": 7627,
      "ĠTet": 7628,
      "ĠJong": 7629,
      "asifikasi": 7630,
      "Ġterm": 7631,
      "ĠEug": 7632,
      "ampa": 7633,
      "Ġciri": 7634,
      "Ġmenghentikan": 7635,
      "ĠCha": 7636,
      "Ġpengobatan": 7637,
      "ĠRek": 7638,
      "EM": 7639,
      "Ġnegatif": 7640,
      "ambangkan": 7641,
      "ĠAT": 7642,
      "ĠAyu": 7643,
      "dut": 7644,
      "AH": 7645,
      "Ġulasan": 7646,
      "ĠEver": 7647,
      "onso": 7648,
      "ĠRena": 7649,
      "erlukan": 7650,
      "Ġdialek": 7651,
      "ahit": 7652,
      "Ġkuliah": 7653,
      "ĠCik": 7654,
      "ning": 7655,
      "Ġsuaminya": 7656,
      "astr": 7657,
      "erahan": 7658,
      "elapan": 7659,
      "Ġselamat": 7660,
      "oner": 7661,
      "ĠRW": 7662,
      "able": 7663,
      "edikasikan": 7664,
      "ente": 7665,
      "ĠMasehi": 7666,
      "saan": 7667,
      "Ġsatunya": 7668,
      "edit": 7669,
      "enggol": 7670,
      "uktikan": 7671,
      "Ab": 7672,
      "ekh": 7673,
      "ego": 7674,
      "UM": 7675,
      "ĠĠĠĠĠĠĠĠĠĠĠĠĠĠĠĠĠĠĠĠĠĠĠĠĠĠĠĠĠĠĠĠĠĠĠĠĠĠĠĠĠĠĠĠĠĠĠĠĠĠĠĠĠĠĠĠĠĠĠĠĠĠĠĠĠĠĠĠĠĠĠĠĠĠĠĠĠĠĠĠĠĠ": 7676,
      "Ġoff": 7677,
      "okerto": 7678,
      "tive": 7679,
      "ĠMBC": 7680,
      "ĠTob": 7681,
      "ĠColumb": 7682,
      "Ġdaratan": 7683,
      "anker": 7684,
      "celona": 7685,
      "Ġbayi": 7686,
      "Ġdibawah": 7687,
      "Ġpembawa": 7688,
      "tin": 7689,
      "Ġtidur": 7690,
      "ĠRic": 7691,
      "Ġdrum": 7692,
      "ĠElv": 7693,
      "ĠBib": 7694,
      "ejala": 7695,
      "ambangan": 7696,
      "enian": 7697,
      "okok": 7698,
      "Ġberganti": 7699,
      "Ġadegan": 7700,
      "ĠSS": 7701,
      "Ġ86": 7702,
      "ĠDance": 7703,
      "Ġmor": 7704,
      "ĠMemb": 7705,
      "Ġkaryanya": 7706,
      "ominasikan": 7707,
      "ĠZona": 7708,
      "ĠHanya": 7709,
      "ĠTerl": 7710,
      "ĠCall": 7711,
      "Ġ%": 7712,
      "ĠHistory": 7713,
      "ĠPek": 7714,
      "ĠHaji": 7715,
      "ĠHart": 7716,
      "Ġhel": 7717,
      "CO": 7718,
      "ĠPower": 7719,
      "ĠMang": 7720,
      "Ġ1943": 7721,
      "ĠMaya": 7722,
      "ĠKetiga": 7723,
      "Ġkomune": 7724,
      "onegoro": 7725,
      "Ġlegislatif": 7726,
      "intasi": 7727,
      "Ġarus": 7728,
      "Ġastr": 7729,
      "Ġmelainkan": 7730,
      "ĠIbrahim": 7731,
      "urung": 7732,
      "ĠPerak": 7733,
      "Ġsiapa": 7734,
      "Ġsetuju": 7735,
      "unjungan": 7736,
      "uny": 7737,
      "sin": 7738,
      "adw": 7739,
      "ĠChannel": 7740,
      "ĠPon": 7741,
      "ĠSik": 7742,
      "ĠFred": 7743,
      "itri": 7744,
      "ĠJKT": 7745,
      "xi": 7746,
      "ĠBatang": 7747,
      "echt": 7748,
      "ĠKapten": 7749,
      "Ġ83": 7750,
      "ĠPener": 7751,
      "Tr": 7752,
      "gerakan": 7753,
      "Ġ?": 7754,
      "ĠJuga": 7755,
      "oksida": 7756,
      "Ã´": 7757,
      "ĠPanglima": 7758,
      "ĠTaylor": 7759,
      "Ġangkasa": 7760,
      "ĠSK": 7761,
      "ĠTari": 7762,
      "Ġmakhluk": 7763,
      "Ġstadion": 7764,
      "arenakan": 7765,
      "Ġanime": 7766,
      "ĠBull": 7767,
      "Ġaf": 7768,
      "ĠBendera": 7769,
      "Ġwafat": 7770,
      "ther": 7771,
      "egiatan": 7772,
      "Ġmemanfaatkan": 7773,
      "irman": 7774,
      "Ġtersisa": 7775,
      "ĠDinas": 7776,
      "ĠWild": 7777,
      "tarik": 7778,
      "Kat": 7779,
      "ĠPag": 7780,
      "Ġputranya": 7781,
      "ĠSig": 7782,
      "ĠÅĮ": 7783,
      "UD": 7784,
      "ĠMaz": 7785,
      "untry": 7786,
      "ĠFA": 7787,
      "Ġsarjana": 7788,
      "ĠSinopsis": 7789,
      "Ġberpengaruh": 7790,
      "ĠAM": 7791,
      "Ġhiburan": 7792,
      "ĠLiu": 7793,
      "Ġkontes": 7794,
      "eluk": 7795,
      "ĠĠĠĠĠĠĠĠĠĠĠĠĠĠĠĠĠĠĠĠĠĠĠĠĠĠĠĠĠĠĠĠĠĠĠĠĠĠĠĠĠĠĠĠĠĠĠĠĠĠĠĠĠĠĠĠĠĠĠĠĠĠĠĠĠĠĠĠĠĠĠĠĠĠĠĠĠĠĠĠĠĠĠ": 7796,
      "Ġfinis": 7797,
      "ĠAlf": 7798,
      "Ġterkemuka": 7799,
      "Ġpermanen": 7800,
      "Ġkeenam": 7801,
      "juk": 7802,
      "ĠRio": 7803,
      "seperti": 7804,
      "Pers": 7805,
      "ĠSaw": 7806,
      "ĠMesin": 7807,
      "ajikan": 7808,
      "ĠFeb": 7809,
      "ĠJeff": 7810,
      "Ġpuisi": 7811,
      "uko": 7812,
      "anon": 7813,
      "olan": 7814,
      "ulitan": 7815,
      "irmasi": 7816,
      "ãĥ«": 7817,
      "ĠMcL": 7818,
      "ÃĹ": 7819,
      "ĠSpecial": 7820,
      "karya": 7821,
      "Ġdepartemen": 7822,
      "ĠBangka": 7823,
      "imo": 7824,
      "unting": 7825,
      "Ġradi": 7826,
      "ĠSMK": 7827,
      "atinum": 7828,
      "nik": 7829,
      "Ġmemerankan": 7830,
      "Ġhakim": 7831,
      "ĠKompetisi": 7832,
      "Ġmengirimkan": 7833,
      "ĠJosÃ©": 7834,
      "zhou": 7835,
      "Ġiklan": 7836,
      "atikan": 7837,
      "ĠSad": 7838,
      "ilangkan": 7839,
      "ĠChicago": 7840,
      "ĠAsosiasi": 7841,
      "otria": 7842,
      "ĠKerja": 7843,
      "ĠRhoma": 7844,
      "aul": 7845,
      "Ġmenyerahkan": 7846,
      "Ġmenjadikannya": 7847,
      "ĠPul": 7848,
      "Pemb": 7849,
      "ahi": 7850,
      "ĠKomunikasi": 7851,
      "Ġmemuat": 7852,
      "ĠFrancisco": 7853,
      "NS": 7854,
      "Ġaktiv": 7855,
      "ĠZhang": 7856,
      "rang": 7857,
      "ĠPerh": 7858,
      "Ġdiduga": 7859,
      "ĠKonstitusi": 7860,
      "Ã©e": 7861,
      "ĠĠĠĠĠĠĠĠĠĠĠĠĠĠĠĠĠĠĠĠĠĠĠĠĠĠĠĠĠĠĠĠĠĠĠĠĠĠĠĠĠĠĠĠĠĠĠĠĠĠĠĠĠĠĠĠĠĠĠĠĠĠĠĠĠĠĠĠĠĠĠĠĠĠĠĠĠĠĠĠĠĠĠĠĠĠĠĠĠ": 7862,
      "Ġterin": 7863,
      "ĠRahayu": 7864,
      "asp": 7865,
      "ĠKenn": 7866,
      "áº": 7867,
      "encanaan": 7868,
      "ĠCont": 7869,
      "Ġtelepon": 7870,
      "unggung": 7871,
      "1989": 7872,
      "pos": 7873,
      "versi": 7874,
      "Ġpid": 7875,
      "ĠMall": 7876,
      "ĠBack": 7877,
      "ropolitan": 7878,
      "agung": 7879,
      "epal": 7880,
      "urni": 7881,
      "Ġanalisis": 7882,
      ".:": 7883,
      "Ġkre": 7884,
      "ĠOd": 7885,
      "ogle": 7886,
      "Ġplay": 7887,
      "ĠCip": 7888,
      "It": 7889,
      "Ġtergantung": 7890,
      "Ġsejarawan": 7891,
      "Ġmunisipalitas": 7892,
      "Ġberlanjut": 7893,
      "ĠSky": 7894,
      "Ĥ¬": 7895,
      "Ġgagasan": 7896,
      "Ġkuil": 7897,
      "oke": 7898,
      "Ġroda": 7899,
      "Ġterjadinya": 7900,
      "ĠFis": 7901,
      "Ġilmuwan": 7902,
      "Ġkertas": 7903,
      "ĠIstri": 7904,
      "annes": 7905,
      "Ġadap": 7906,
      "track": 7907,
      "ĠJud": 7908,
      "ĠFort": 7909,
      "Ġpemuda": 7910,
      "ĠYouT": 7911,
      "Ġroh": 7912,
      "angkal": 7913,
      "Ġpagi": 7914,
      "ĠBunga": 7915,
      "oul": 7916,
      "onn": 7917,
      "ajuan": 7918,
      "Ġkejuaraan": 7919,
      "Ġdiplomat": 7920,
      "Ġtiap": 7921,
      "Ġsuka": 7922,
      "tod": 7923,
      "ecio": 7924,
      "Ġ1938": 7925,
      "ĠĠĠĠĠĠĠĠĠĠĠĠĠĠĠĠĠĠĠĠĠĠĠĠĠĠĠĠĠĠĠĠĠĠĠĠĠĠĠĠĠĠĠĠĠĠĠĠĠĠĠĠĠĠĠĠĠĠĠĠĠĠĠĠĠĠĠĠĠĠĠĠĠĠĠĠĠĠĠĠĠĠĠĠĠĠĠĠĠĠĠĠĠĠĠĠĠĠĠĠĠĠĠĠĠĠĠĠĠĠĠĠĠĠĠĠĠĠĠĠĠĠĠĠĠĠĠĠĠĠĠĠĠĠĠĠĠĠĠĠĠĠĠĠĠĠĠĠĠĠĠĠĠĠĠĠĠĠĠĠĠĠĠĠĠĠĠĠĠĠĠĠĠĠĠĠĠĠĠĠĠĠĠĠĠĠĠĠĠĠĠĠĠĠĠ": 7926,
      "ĠBeijing": 7927,
      "%,": 7928,
      "ĠSlov": 7929,
      "ĠĠĠĠĠĠĠĠĠĠĠĠĠĠĠĠĠĠĠĠĠĠĠĠĠĠĠĠĠĠĠĠĠĠĠĠĠĠĠĠĠĠĠĠĠĠĠĠĠĠĠĠĠĠĠĠĠĠĠĠĠĠĠĠĠĠĠĠĠĠĠĠĠĠĠĠĠĠĠĠĠ": 7930,
      "entian": 7931,
      "well": 7932,
      "endak": 7933,
      "Ġformat": 7934,
      "araja": 7935,
      "onstr": 7936,
      "ĠSeoul": 7937,
      "ĠSebelumnya": 7938,
      "```": 7939,
      "meng": 7940,
      "ĠPasal": 7941,
      "ĠDal": 7942,
      "ospongiae": 7943,
      "Ġmelah": 7944,
      "ihir": 7945,
      "Ġotomatis": 7946,
      "esc": 7947,
      "anggang": 7948,
      "ĠDemospongiae": 7949,
      "injaman": 7950,
      "Ġsengaja": 7951,
      "Ġmenara": 7952,
      "Ġwa": 7953,
      "Ġev": 7954,
      "ĠDil": 7955,
      "Ġbas": 7956,
      "Pengisi": 7957,
      "ĠYan": 7958,
      "onya": 7959,
      "Ġagen": 7960,
      "AK": 7961,
      "ĠSamar": 7962,
      "ĠĠĠĠĠĠĠĠĠĠĠĠĠĠĠĠĠĠĠĠĠĠĠĠĠĠĠĠĠĠĠĠĠĠĠĠĠĠĠĠĠĠĠĠĠĠĠĠĠĠĠĠĠĠĠĠĠĠĠĠĠĠĠĠĠĠĠĠĠĠĠĠĠĠĠĠĠĠĠĠĠĠĠĠĠĠĠĠ": 7963,
      "ĠPetrus": 7964,
      "rez": 7965,
      "Ġpredator": 7966,
      "ĠBroad": 7967,
      "Ġlip": 7968,
      "br": 7969,
      "Ġdanau": 7970,
      "ĠCorn": 7971,
      "Ġkesepakatan": 7972,
      "ĠLomb": 7973,
      "ĠSai": 7974,
      "Ġpra": 7975,
      "ĠPenelitian": 7976,
      "ĠPengadilan": 7977,
      "Ġmenikahi": 7978,
      "ĠRata": 7979,
      "ambung": 7980,
      "ĠĠĠĠĠĠĠĠĠĠĠĠĠĠĠĠĠĠĠĠĠĠĠĠĠĠĠĠĠĠĠĠĠĠĠĠĠĠĠĠĠĠĠĠĠĠĠĠĠĠĠĠĠĠĠĠĠĠĠĠĠĠĠĠĠĠĠĠĠĠĠĠĠĠĠĠĠĠĠĠĠĠĠĠĠĠĠĠĠĠ": 7981,
      "Ùĩ": 7982,
      "alk": 7983,
      "turut": 7984,
      "ĠPlatinum": 7985,
      "ĠYe": 7986,
      "Ġsc": 7987,
      "EO": 7988,
      "Ġlatihan": 7989,
      "ĠPep": 7990,
      "ĠMol": 7991,
      "Ġmusisi": 7992,
      "ĠKontestan": 7993,
      "adiran": 7994,
      "ĠBarcelona": 7995,
      "ĠSoekarno": 7996,
      "Ġberturut": 7997,
      "ĠĠĠĠĠĠĠĠĠĠĠĠĠĠĠĠĠĠĠĠĠĠĠĠĠĠĠĠĠĠĠĠĠĠĠĠĠĠĠĠĠĠĠĠĠĠĠĠĠĠĠĠĠĠĠĠĠĠĠĠĠĠĠĠĠĠĠĠĠĠĠĠĠĠĠĠĠĠĠĠĠĠĠĠĠĠĠĠĠĠĠĠĠĠĠĠĠĠĠĠĠĠĠĠĠĠĠĠĠĠĠĠĠĠĠĠĠĠĠĠĠĠĠĠĠĠĠĠĠĠĠĠĠĠĠĠĠĠĠĠĠĠĠĠĠĠĠĠĠĠĠĠĠĠĠĠĠĠĠĠĠĠĠĠĠĠĠĠĠĠĠĠĠĠĠĠĠĠĠĠĠĠĠĠĠĠĠĠĠĠĠĠĠĠĠĠĠĠĠĠĠĠĠĠĠĠĠĠĠĠĠĠĠĠĠĠĠĠĠĠĠĠĠĠĠĠĠĠĠĠĠĠĠĠĠĠĠĠĠĠĠĠĠĠĠĠĠĠĠĠĠĠĠĠĠĠĠĠĠĠĠĠĠĠĠĠĠĠĠĠĠĠĠĠĠĠĠĠĠĠĠĠĠĠĠĠĠĠĠĠĠĠĠĠĠĠĠĠĠĠĠĠĠĠĠĠĠĠĠĠĠĠĠĠĠĠĠĠĠĠĠĠĠĠĠĠĠĠĠĠĠĠĠĠĠĠĠĠĠĠĠĠĠĠĠĠĠĠĠĠĠĠĠĠĠĠĠĠĠĠĠĠĠĠĠĠĠĠĠĠĠĠĠĠĠĠĠĠĠĠĠĠĠĠĠĠĠĠĠĠĠĠĠĠĠĠĠĠĠĠĠĠĠĠĠĠĠĠĠĠĠĠĠĠĠĠĠĠĠĠĠĠĠĠĠĠĠĠĠĠĠĠĠĠĠĠĠĠĠĠĠĠĠĠĠĠĠĠĠĠĠĠĠĠĠĠĠĠĠĠĠĠĠĠĠĠĠĠĠĠĠĠĠĠĠĠĠĠĠĠĠĠĠĠĠĠĠĠĠĠĠĠĠĠĠĠĠĠĠĠĠĠĠĠĠĠĠĠĠĠĠĠĠĠĠĠĠĠĠĠĠĠĠĠĠĠĠĠĠĠĠĠĠĠĠĠĠĠĠĠĠĠĠĠĠĠĠĠĠĠĠĠĠĠĠĠĠĠĠĠĠĠĠĠĠĠĠĠĠĠĠĠĠĠĠĠĠĠĠĠĠĠĠĠĠĠĠĠĠĠĠĠĠĠĠĠĠĠĠĠĠĠĠĠĠĠĠĠĠĠĠĠĠĠĠĠĠĠĠĠĠĠĠĠĠĠĠĠĠĠĠĠĠĠĠĠĠĠĠĠĠĠĠĠĠĠĠĠĠĠĠĠĠĠĠĠĠĠĠĠĠĠĠĠĠĠĠĠĠĠĠĠĠĠĠĠĠĠĠĠĠĠĠĠĠĠĠĠĠĠĠĠĠĠĠĠĠĠĠĠĠĠĠĠĠĠĠĠĠĠĠĠĠĠĠĠĠĠĠĠĠĠĠĠĠĠĠĠĠĠĠĠĠĠĠĠĠĠĠĠĠĠĠĠĠĠĠĠĠĠĠĠĠĠĠĠĠĠĠĠĠĠĠĠĠĠĠĠ": 7998,
      "Ġperkebunan": 7999,
      "fras": 8000,
      "ĠJunior": 8001,
      "ĠLaur": 8002,
      "ĠApi": 8003,
      "lish": 8004,
      "akat": 8005,
      "ucapan": 8006,
      "osiar": 8007,
      "Pd": 8008,
      "ĠGelar": 8009,
      "ĠYerusalem": 8010,
      "Ġteknis": 8011,
      "etiaan": 8012,
      "ĠSitus": 8013,
      "uruk": 8014,
      "Ġmemerlukan": 8015,
      "ĠMaros": 8016,
      "Ð´": 8017,
      "ĠSamudra": 8018,
      "ĠJohnson": 8019,
      "ivia": 8020,
      "Ġmenderita": 8021,
      "ĠAgus": 8022,
      "sat": 8023,
      "Ġsuami": 8024,
      "amer": 8025,
      "Ġmembaca": 8026,
      "oj": 8027,
      "idasi": 8028,
      "ĠKursi": 8029,
      "ĠHome": 8030,
      "Ġfot": 8031,
      "bungan": 8032,
      "Ġwajah": 8033,
      "ĠYosh": 8034,
      "inggalan": 8035,
      "ukang": 8036,
      "ĠKawasan": 8037,
      "seud": 8038,
      "ingen": 8039,
      "ilisan": 8040,
      "alti": 8041,
      "ĠPasangan": 8042,
      "Ġdilantik": 8043,
      "Ġ250": 8044,
      "uncuran": 8045,
      "ĠPolisi": 8046,
      "TS": 8047,
      "sum": 8048,
      "edak": 8049,
      "Ġspir": 8050,
      "UR": 8051,
      "Ġdisingkat": 8052,
      "Ġtarget": 8053,
      "Ġkedudukan": 8054,
      "ĠLight": 8055,
      "Ġdipengaruhi": 8056,
      "ĠHerman": 8057,
      "ĠKomunis": 8058,
      "udio": 8059,
      "ĠPolri": 8060,
      "antis": 8061,
      "ahabatan": 8062,
      "ĠModern": 8063,
      "Ġdulu": 8064,
      "Ġbergantung": 8065,
      "Ġkasih": 8066,
      "enge": 8067,
      "ĠMass": 8068,
      "ĠNazi": 8069,
      "garia": 8070,
      "irat": 8071,
      "his": 8072,
      "ĠHitam": 8073,
      "ĠHingga": 8074,
      "ĠTu": 8075,
      "amana": 8076,
      "egrasi": 8077,
      "quar": 8078,
      "omosikan": 8079,
      "ĠKolombia": 8080,
      "ĠMati": 8081,
      "ĠMataram": 8082,
      "2025": 8083,
      "uela": 8084,
      "ĠProses": 8085,
      "aritas": 8086,
      "Ġdiperb": 8087,
      "ĠSG": 8088,
      "Ġlong": 8089,
      "Ġhabit": 8090,
      "ĠDub": 8091,
      "ĠPerempuan": 8092,
      "utasi": 8093,
      "elahan": 8094,
      "Ġizin": 8095,
      "ĠPenggunaan": 8096,
      "ĠAdministrasi": 8097,
      "Ġdiganti": 8098,
      "Ġkunci": 8099,
      "Sm": 8100,
      "aitkan": 8101,
      "Ġsim": 8102,
      "ĠAL": 8103,
      "Sebuah": 8104,
      "iraan": 8105,
      "ĠKutai": 8106,
      "awaran": 8107,
      "Ġrumput": 8108,
      "sinya": 8109,
      "ques": 8110,
      "ĠBrunei": 8111,
      "ĠShir": 8112,
      "1988": 8113,
      "Ġberv": 8114,
      "Ġperjuangan": 8115,
      "ĠTVRI": 8116,
      "ĠPir": 8117,
      "Ġsapi": 8118,
      "Ġalk": 8119,
      "Ġrahasia": 8120,
      "ĠMill": 8121,
      "400": 8122,
      "Ġmelahirkan": 8123,
      "antau": 8124,
      "ĠSastra": 8125,
      "ĠErn": 8126,
      "Ã©n": 8127,
      "ĠJane": 8128,
      "Ġsikap": 8129,
      "ĠRap": 8130,
      "ĠFord": 8131,
      "ĠSingle": 8132,
      "ĠBapak": 8133,
      "Ġharian": 8134,
      "ĠBac": 8135,
      "Ġmempromosikan": 8136,
      "olehan": 8137,
      "ĠOxford": 8138,
      "ĠKad": 8139,
      "Ġpembuat": 8140,
      "Ġ97": 8141,
      "aksasa": 8142,
      "Ġhadiah": 8143,
      "ĠPP": 8144,
      "oslav": 8145,
      "ĠOf": 8146,
      "ĠJab": 8147,
      "ĠHans": 8148,
      "owakia": 8149,
      "Ġvirus": 8150,
      "osari": 8151,
      "rio": 8152,
      "Ġkepadanya": 8153,
      "aring": 8154,
      "ĠIX": 8155,
      "Ġluka": 8156,
      "amily": 8157,
      "Ġditambahkan": 8158,
      "Ġpul": 8159,
      "elo": 8160,
      "ĠCS": 8161,
      "Ġaset": 8162,
      "onster": 8163,
      "ww": 8164,
      "edo": 8165,
      "aci": 8166,
      "tle": 8167,
      "ebihan": 8168,
      "elilingi": 8169,
      "ĠLewis": 8170,
      "pha": 8171,
      "ĠPerg": 8172,
      "ĠPont": 8173,
      "ĠPembagian": 8174,
      "Ġpasca": 8175,
      "Ġdius": 8176,
      "otus": 8177,
      "ĠAntonio": 8178,
      "ĠSemifinal": 8179,
      "ĠSingles": 8180,
      "Kec": 8181,
      "erdasarkan": 8182,
      "ĠHollywood": 8183,
      "ilikan": 8184,
      "organ": 8185,
      "ĠState": 8186,
      "Ġpembukaan": 8187,
      "ĠBangk": 8188,
      "Ġmembayar": 8189,
      "Ġancaman": 8190,
      "Ġcircle": 8191,
      "Ġkontrov": 8192,
      "yam": 8193,
      "ĠWalaupun": 8194,
      "Ġmemastikan": 8195,
      "trans": 8196,
      "ĠCib": 8197,
      "ĠPesantren": 8198,
      "ĠCop": 8199,
      "ĠMyan": 8200,
      "Ġsemacam": 8201,
      "ĠStand": 8202,
      "Ġrambut": 8203,
      "ambaran": 8204,
      "ervasi": 8205,
      "imbangkan": 8206,
      "ĠAsisten": 8207,
      "yai": 8208,
      "abe": 8209,
      "Â·": 8210,
      "Ġmenetap": 8211,
      "ĠBudi": 8212,
      "ĠDoc": 8213,
      "kel": 8214,
      "Ġ------------------------------------------------------------": 8215,
      "inyal": 8216,
      "ĠLast": 8217,
      "Inggris": 8218,
      "ĠJen": 8219,
      "ĠSyd": 8220,
      "ĠPerubahan": 8221,
      "ival": 8222,
      "ĠMyanmar": 8223,
      "Ġbandara": 8224,
      "Tahun": 8225,
      "frastruktur": 8226,
      "iger": 8227,
      "Ã©s": 8228,
      "perti": 8229,
      "iani": 8230,
      "angkatan": 8231,
      "ĠIdol": 8232,
      "urt": 8233,
      "Ġresp": 8234,
      "Ġkebebasan": 8235,
      "Ġmanga": 8236,
      "oon": 8237,
      "amboja": 8238,
      "Ġmendengar": 8239,
      "Ġmau": 8240,
      "andy": 8241,
      "ĠKA": 8242,
      "ĠLev": 8243,
      "adaptasi": 8244,
      "Ġmemperkuat": 8245,
      "Ġmembahas": 8246,
      "yanto": 8247,
      "Ġdikelola": 8248,
      "ĠCent": 8249,
      "bia": 8250,
      "ilin": 8251,
      "Ġfos": 8252,
      "Ġmaskapai": 8253,
      "ĠSiti": 8254,
      "Ġtropis": 8255,
      "ĠCara": 8256,
      "Ġ-----------------------------------": 8257,
      "erm": 8258,
      "Ġkehormatan": 8259,
      "Ġmenandai": 8260,
      "Ġ}": 8261,
      "El": 8262,
      "Ġnasi": 8263,
      "ĠCM": 8264,
      "Ġpengikut": 8265,
      "Ġpenurunan": 8266,
      "ĠEksek": 8267,
      "ildan": 8268,
      "Ġsahabat": 8269,
      "Ġditandai": 8270,
      "VID": 8271,
      "ĠSystem": 8272,
      "ĠTurnamen": 8273,
      "ĠKroasia": 8274,
      "ĠCitra": 8275,
      "Ġuji": 8276,
      "olar": 8277,
      "Ġkekalahan": 8278,
      "Ġmateri": 8279,
      "Ġmengenakan": 8280,
      "iaran": 8281,
      "ĠMisalnya": 8282,
      "ĠRumania": 8283,
      "inter": 8284,
      "sesi": 8285,
      "ĠBil": 8286,
      "Ph": 8287,
      "Ġmembintangi": 8288,
      "Ġdiresmikan": 8289,
      "ĠTib": 8290,
      "Ġsetahun": 8291,
      "Ġminuman": 8292,
      "Ġpemilu": 8293,
      "entangan": 8294,
      "Ġkonstruksi": 8295,
      "Ġru": 8296,
      "ĠCross": 8297,
      "ĠKecil": 8298,
      "ĠBulbophyllum": 8299,
      "ayung": 8300,
      "imaan": 8301,
      "ombinasi": 8302,
      "Ġdinominasikan": 8303,
      "Ġelektron": 8304,
      "angul": 8305,
      "×Ļ": 8306,
      "Ġdimak": 8307,
      "Pel": 8308,
      "yangan": 8309,
      "ifer": 8310,
      "ĠXV": 8311,
      "Ġmac": 8312,
      "Ġkesulitan": 8313,
      "Ġulama": 8314,
      "ways": 8315,
      "ĠBert": 8316,
      "inyin": 8317,
      "á¸": 8318,
      "intasan": 8319,
      "alisi": 8320,
      "Ġmenak": 8321,
      "embilan": 8322,
      "ĠRC": 8323,
      "ĠBata": 8324,
      "uksesan": 8325,
      "Ġperayaan": 8326,
      "Ġayam": 8327,
      "ĠKay": 8328,
      "SN": 8329,
      "yakini": 8330,
      "ĠHarris": 8331,
      "Tidak": 8332,
      "edonia": 8333,
      "ĠJumat": 8334,
      "Ġ96": 8335,
      "Ġinternet": 8336,
      "Ġkas": 8337,
      "ĠTony": 8338,
      "angkitan": 8339,
      "Ġdiken": 8340,
      "etujuan": 8341,
      "Ġdiatur": 8342,
      "ĠSaya": 8343,
      "estik": 8344,
      "ĠMahasiswa": 8345,
      "ĠMarin": 8346,
      "Ġgigi": 8347,
      "ecil": 8348,
      "--------------------------------------------------------------------------------------------------------------------------------------------------------------------------------------------------------------------------------------------------------------------------------------------------------------------------------------------------------------------------------------------------------------------------------------------------------------------------------------------------------------------------------": 8349,
      "ianus": 8350,
      "Ġmatematika": 8351,
      "ĠRoman": 8352,
      "inja": 8353,
      "ĠBond": 8354,
      "asakan": 8355,
      "ĠRobin": 8356,
      "ĠBuruh": 8357,
      "enom": 8358,
      "Ġdipercaya": 8359,
      "ĠPatrick": 8360,
      "IC": 8361,
      "Ġsimp": 8362,
      "Ġberfokus": 8363,
      "ĠSE": 8364,
      "ĠDown": 8365,
      "Ġberkuasa": 8366,
      "Ġmenyampaikan": 8367,
      "ĠYouTube": 8368,
      "ĠLen": 8369,
      "ĠPersib": 8370,
      "Ġparah": 8371,
      "Ġ101": 8372,
      "uris": 8373,
      "ingkan": 8374,
      "ĠRus": 8375,
      "Ġdidedikasikan": 8376,
      "aham": 8377,
      "ĠEmp": 8378,
      "Ġzona": 8379,
      "Ġkesalahan": 8380,
      "Ġbervariasi": 8381,
      "opia": 8382,
      "oria": 8383,
      "hol": 8384,
      "ĠEric": 8385,
      "1987": 8386,
      "utus": 8387,
      "ĠVIII": 8388,
      "iper": 8389,
      "Ġgabungan": 8390,
      "Ġzat": 8391,
      "Ġha": 8392,
      "Ġkub": 8393,
      "ĠRyan": 8394,
      "ĠGall": 8395,
      "sc": 8396,
      "Ġtari": 8397,
      "ĠMada": 8398,
      "Ïĥ": 8399,
      "ĠNAS": 8400,
      "ĠFreder": 8401,
      "dusen": 8402,
      "ĠHai": 8403,
      "Ġgolongan": 8404,
      "ĠAsp": 8405,
      "Ġsl": 8406,
      "udang": 8407,
      "Ul": 8408,
      "ĠCour": 8409,
      "Ġpega": 8410,
      "ĠDVD": 8411,
      "uce": 8412,
      "aker": 8413,
      "ĠPintu": 8414,
      "ĠLayanan": 8415,
      "Ġmakna": 8416,
      "Ġinternal": 8417,
      "avi": 8418,
      "Ġdikarenakan": 8419,
      "ĠMohammad": 8420,
      "press": 8421,
      "Ġbakteri": 8422,
      "juga": 8423,
      "atri": 8424,
      "rut": 8425,
      "Ġkomandan": 8426,
      "Ġ1937": 8427,
      "angkut": 8428,
      "Ġ1935": 8429,
      "Ġditerapkan": 8430,
      "Ġhe": 8431,
      "SD": 8432,
      "idor": 8433,
      "Ġ1936": 8434,
      "Ġkeuskupan": 8435,
      "Ñĥ": 8436,
      "Ã¼n": 8437,
      "ĠStatistik": 8438,
      "Ġmedan": 8439,
      "ahaman": 8440,
      "Ġpendekatan": 8441,
      "Ġpenut": 8442,
      "ianjur": 8443,
      "ĠBed": 8444,
      "ĠBulgaria": 8445,
      "ĠDecember": 8446,
      "ĠCarex": 8447,
      "ĠRain": 8448,
      "awancara": 8449,
      "rd": 8450,
      "ĠCerita": 8451,
      "Ġmal": 8452,
      "ĠLiv": 8453,
      "Ġpengakuan": 8454,
      "Ġdinamakan": 8455,
      "Ġ1933": 8456,
      "ĠPolit": 8457,
      "ĠFu": 8458,
      "ĠPariwisata": 8459,
      "§Ģ": 8460,
      "asangan": 8461,
      "Ġ91": 8462,
      "Ġdiw": 8463,
      "Ġpendirian": 8464,
      "Ġ92": 8465,
      "otan": 8466,
      "ĠWes": 8467,
      "ĠJus": 8468,
      "opter": 8469,
      "ref": 8470,
      "ĠGon": 8471,
      "ordan": 8472,
      "anyaan": 8473,
      "Ġbukanlah": 8474,
      "Ġdll": 8475,
      "ĠKG": 8476,
      "Karena": 8477,
      "Ġpapan": 8478,
      "mais": 8479,
      "ĠTamil": 8480,
      "Ġcom": 8481,
      "Ġmelintasi": 8482,
      "Ġkanker": 8483,
      "igan": 8484,
      "ĠAB": 8485,
      "endi": 8486,
      "Le": 8487,
      "etta": 8488,
      "ĠTj": 8489,
      "etas": 8490,
      "ĠEmpat": 8491,
      "Ġkonten": 8492,
      "ym": 8493,
      "Ġintel": 8494,
      "indu": 8495,
      "Ġsolo": 8496,
      "ĠTexas": 8497,
      "Ġ110": 8498,
      "araf": 8499,
      "other": 8500,
      "sed": 8501,
      "Ø³": 8502,
      "ents": 8503,
      "Ġ93": 8504,
      "ĠGaya": 8505,
      "Ġbiara": 8506,
      "Ġer": 8507,
      "ĠĠĠĠĠĠĠĠĠĠĠĠĠĠĠĠĠĠĠĠĠĠĠĠĠĠĠĠĠĠĠĠĠĠĠĠĠĠĠĠĠĠĠĠĠĠĠĠĠĠĠĠĠĠĠĠĠĠĠĠĠĠĠĠĠĠĠĠĠĠĠĠĠĠĠĠĠĠĠĠĠĠĠĠĠ": 8508,
      "ĠChan": 8509,
      "Ġmemasukkan": 8510,
      "pan": 8511,
      "Ġinilah": 8512,
      "Ġbir": 8513,
      "eling": 8514,
      "ĠBambang": 8515,
      "Ġletak": 8516,
      "Ġmenyelenggarakan": 8517,
      "Ġsuper": 8518,
      "ror": 8519,
      "Ġmenya": 8520,
      "iff": 8521,
      "ĠGian": 8522,
      "Ġkandang": 8523,
      "ape": 8524,
      "Ġpunya": 8525,
      "1986": 8526,
      "Ġ_{": 8527,
      "Tim": 8528,
      "isensi": 8529,
      "Ġpeneliti": 8530,
      "erjakan": 8531,
      "issa": 8532,
      "Ġketer": 8533,
      "urch": 8534,
      "ĠYak": 8535,
      "ĠFriend": 8536,
      "Ġkekaisaran": 8537,
      "get": 8538,
      "ĠLetnan": 8539,
      "umni": 8540,
      "Ġarmada": 8541,
      "Ġdisimpan": 8542,
      "ãĥ»": 8543,
      "Ġmempengaruhi": 8544,
      "ĠDI": 8545,
      "ĠTed": 8546,
      "ĠHarv": 8547,
      "ĠAnugerah": 8548,
      "esarkan": 8549,
      "aim": 8550,
      "ĠHis": 8551,
      "ĠSydney": 8552,
      "Ġguna": 8553,
      "Ġcu": 8554,
      "Ġpep": 8555,
      "Ġterbukti": 8556,
      "Ġbishop": 8557,
      "ĠSamb": 8558,
      "Ġgula": 8559,
      "ĠSelanjutnya": 8560,
      "ĠAsian": 8561,
      "Ġmengalir": 8562,
      "ladesh": 8563,
      "ĠCOVID": 8564,
      "young": 8565,
      "ĠArthur": 8566,
      "Ġpenjaga": 8567,
      "onfirmasi": 8568,
      "ĠSuh": 8569,
      "Ġsinar": 8570,
      "Ġbersek": 8571,
      "itter": 8572,
      "abah": 8573,
      "led": 8574,
      "Ġbut": 8575,
      "ĠCB": 8576,
      "ature": 8577,
      "Ġtantangan": 8578,
      "irah": 8579,
      "ĠMalam": 8580,
      "ostolik": 8581,
      "aven": 8582,
      "ĠInternet": 8583,
      "ĠApol": 8584,
      "itungan": 8585,
      "anjir": 8586,
      "Ġterbaru": 8587,
      "Ġtip": 8588,
      "ĠBahkan": 8589,
      "Ġbencana": 8590,
      "eliminasi": 8591,
      "uaran": 8592,
      "ĠAFC": 8593,
      "Ġperawatan": 8594,
      "ĠSurya": 8595,
      "robium": 8596,
      "hel": 8597,
      "ĠBug": 8598,
      "ulum": 8599,
      "ĠTb": 8600,
      "Ġlirik": 8601,
      "td": 8602,
      "rof": 8603,
      "icial": 8604,
      "Ġanaknya": 8605,
      "ĠIstilah": 8606,
      "Ġkampus": 8607,
      "Ġterjun": 8608,
      "Ġqu": 8609,
      "bor": 8610,
      "ĠPesawat": 8611,
      "ĠCre": 8612,
      "ĠKand": 8613,
      "ĠFasilitas": 8614,
      "cam": 8615,
      "ĠInjil": 8616,
      "Ġprasasti": 8617,
      "ĠTert": 8618,
      "Ġsepeda": 8619,
      "Ġberpindah": 8620,
      "ĠPelabuhan": 8621,
      "ĠSony": 8622,
      "ĠChild": 8623,
      "Ġjuri": 8624,
      "ĠFoot": 8625,
      "Ġpenyelenggaraan": 8626,
      "TB": 8627,
      "ĠFamily": 8628,
      "oz": 8629,
      "ĠPost": 8630,
      "jam": 8631,
      "Ġbaja": 8632,
      "Ġê": 8633,
      "Ġkerj": 8634,
      "Ġmenyebar": 8635,
      "Ġseminggu": 8636,
      "epan": 8637,
      "ĠQueen": 8638,
      "Ġdiharapkan": 8639,
      "Ġpenemuan": 8640,
      "ĠSalim": 8641,
      "eor": 8642,
      "ancarkan": 8643,
      "!!": 8644,
      "ĠJat": 8645,
      "ĠSof": 8646,
      "ewar": 8647,
      "ĠDian": 8648,
      "Ġasisten": 8649,
      "olas": 8650,
      "ĠLord": 8651,
      "ĠWomen": 8652,
      "Ġmetal": 8653,
      "ĠJembatan": 8654,
      "ĠMatahari": 8655,
      "ĠSamuel": 8656,
      "ĠGoogle": 8657,
      "ĠMut": 8658,
      "ĠVinc": 8659,
      "ĠAur": 8660,
      "ĠDoug": 8661,
      "Ġkarir": 8662,
      "rum": 8663,
      "Ġmengeks": 8664,
      "eliharaan": 8665,
      "acang": 8666,
      "ĠSA": 8667,
      "ĠBiz": 8668,
      "Ġpadat": 8669,
      "ĠKamboja": 8670,
      "len": 8671,
      "ict": 8672,
      "ĠDepok": 8673,
      "ĠRekor": 8674,
      "ĠPrestasi": 8675,
      "Ġmenyukai": 8676,
      "ĠShi": 8677,
      "Ġribu": 8678,
      "tt": 8679,
      "Para": 8680,
      "Ġpenyebab": 8681,
      "ĠBuk": 8682,
      "Ġakting": 8683,
      "ensif": 8684,
      "ĠOrtod": 8685,
      "ĠHilir": 8686,
      "erbai": 8687,
      "ĠPram": 8688,
      "Ġdinasti": 8689,
      "ĠMyc": 8690,
      "ĠSteve": 8691,
      "ĠOrig": 8692,
      "Ġpemikiran": 8693,
      "Ġstrategi": 8694,
      "egas": 8695,
      "val": 8696,
      "Ġden": 8697,
      "ĠFair": 8698,
      "ĠKepolisian": 8699,
      "ukota": 8700,
      "Ġdifusi": 8701,
      "abet": 8702,
      "ĠKonstant": 8703,
      "Ġkakak": 8704,
      "esaan": 8705,
      "Ġhalus": 8706,
      "die": 8707,
      "Kem": 8708,
      "yp": 8709,
      "ĠRan": 8710,
      "Ġditugaskan": 8711,
      "eidae": 8712,
      "Ġmenggabungkan": 8713,
      "inaan": 8714,
      "Ġperek": 8715,
      "Ġkaca": 8716,
      "Ġdiyakini": 8717,
      "elsea": 8718,
      "ĠFem": 8719,
      "irus": 8720,
      "kov": 8721,
      "ĠMandar": 8722,
      "Pol": 8723,
      "ĠEth": 8724,
      "ajarkan": 8725,
      "Ġkritis": 8726,
      "ĠSenin": 8727,
      "ĠĠĠĠĠĠĠĠĠĠĠĠĠĠĠĠĠĠĠĠĠĠĠĠĠĠĠĠĠĠĠĠĠĠĠĠĠĠĠĠĠĠĠĠĠĠĠĠĠĠĠĠĠĠĠĠĠĠĠĠĠĠĠĠĠĠĠĠĠĠĠĠĠĠĠĠĠĠĠĠĠĠĠĠĠĠĠ": 8728,
      "eti": 8729,
[...]
